#include "neural_model.h"

/* 数字识别模型数据 - 自动生成 */
const uint8_t neural_model_data[] = {
    0x1c, 0x00, 0x00, 0x00, 0x54, 0x46, 0x4c, 0x33, 0x14, 0x00, 0x20, 0x00, 0x1c, 0x00, 0x18, 0x00, 
    0x14, 0x00, 0x10, 0x00, 0x0c, 0x00, 0x00, 0x00, 0x08, 0x00, 0x04, 0x00, 0x14, 0x00, 0x00, 0x00, 
    0x1c, 0x00, 0x00, 0x00, 0x8c, 0x00, 0x00, 0x00, 0xe4, 0x00, 0x00, 0x00, 0xb8, 0x0d, 0x00, 0x00, 
    0xc8, 0x0d, 0x00, 0x00, 0x28, 0x2c, 0x00, 0x00, 0x03, 0x00, 0x00, 0x00, 0x01, 0x00, 0x00, 0x00, 
    0x10, 0x00, 0x00, 0x00, 0x00, 0x00, 0x0a, 0x00, 0x10, 0x00, 0x0c, 0x00, 0x08, 0x00, 0x04, 0x00, 
    0x0a, 0x00, 0x00, 0x00, 0x0c, 0x00, 0x00, 0x00, 0x1c, 0x00, 0x00, 0x00, 0x38, 0x00, 0x00, 0x00, 
    0x0f, 0x00, 0x00, 0x00, 0x73, 0x65, 0x72, 0x76, 0x69, 0x6e, 0x67, 0x5f, 0x64, 0x65, 0x66, 0x61, 
    0x75, 0x6c, 0x74, 0x00, 0x01, 0x00, 0x00, 0x00, 0x04, 0x00, 0x00, 0x00, 0x9c, 0xff, 0xff, 0xff, 
    0x20, 0x00, 0x00, 0x00, 0x04, 0x00, 0x00, 0x00, 0x07, 0x00, 0x00, 0x00, 0x64, 0x65, 0x6e, 0x73, 
    0x65, 0x5f, 0x31, 0x00, 0x01, 0x00, 0x00, 0x00, 0x04, 0x00, 0x00, 0x00, 0x52, 0xef, 0xff, 0xff, 
    0x04, 0x00, 0x00, 0x00, 0x07, 0x00, 0x00, 0x00, 0x69, 0x6e, 0x70, 0x75, 0x74, 0x5f, 0x31, 0x00, 
    0x02, 0x00, 0x00, 0x00, 0x34, 0x00, 0x00, 0x00, 0x04, 0x00, 0x00, 0x00, 0xdc, 0xff, 0xff, 0xff, 
    0x23, 0x00, 0x00, 0x00, 0x04, 0x00, 0x00, 0x00, 0x13, 0x00, 0x00, 0x00, 0x43, 0x4f, 0x4e, 0x56, 
    0x45, 0x52, 0x53, 0x49, 0x4f, 0x4e, 0x5f, 0x4d, 0x45, 0x54, 0x41, 0x44, 0x41, 0x54, 0x41, 0x00, 
    0x08, 0x00, 0x0c, 0x00, 0x08, 0x00, 0x04, 0x00, 0x08, 0x00, 0x00, 0x00, 0x22, 0x00, 0x00, 0x00, 
    0x04, 0x00, 0x00, 0x00, 0x13, 0x00, 0x00, 0x00, 0x6d, 0x69, 0x6e, 0x5f, 0x72, 0x75, 0x6e, 0x74, 
    0x69, 0x6d, 0x65, 0x5f, 0x76, 0x65, 0x72, 0x73, 0x69, 0x6f, 0x6e, 0x00, 0x24, 0x00, 0x00, 0x00, 
    0xd0, 0x0c, 0x00, 0x00, 0xc8, 0x0c, 0x00, 0x00, 0xb0, 0x0c, 0x00, 0x00, 0x78, 0x0c, 0x00, 0x00, 
    0x28, 0x0b, 0x00, 0x00, 0x98, 0x0a, 0x00, 0x00, 0x88, 0x06, 0x00, 0x00, 0xf8, 0x05, 0x00, 0x00, 
    0xe8, 0x03, 0x00, 0x00, 0x98, 0x03, 0x00, 0x00, 0xf8, 0x02, 0x00, 0x00, 0xa8, 0x02, 0x00, 0x00, 
    0x18, 0x02, 0x00, 0x00, 0xe8, 0x01, 0x00, 0x00, 0x90, 0x01, 0x00, 0x00, 0x60, 0x01, 0x00, 0x00, 
    0x40, 0x01, 0x00, 0x00, 0x28, 0x01, 0x00, 0x00, 0x04, 0x01, 0x00, 0x00, 0xfc, 0x00, 0x00, 0x00, 
    0xf4, 0x00, 0x00, 0x00, 0xec, 0x00, 0x00, 0x00, 0xe4, 0x00, 0x00, 0x00, 0xdc, 0x00, 0x00, 0x00, 
    0xd4, 0x00, 0x00, 0x00, 0xcc, 0x00, 0x00, 0x00, 0xc4, 0x00, 0x00, 0x00, 0xbc, 0x00, 0x00, 0x00, 
    0xb4, 0x00, 0x00, 0x00, 0xac, 0x00, 0x00, 0x00, 0xa4, 0x00, 0x00, 0x00, 0x9c, 0x00, 0x00, 0x00, 
    0x94, 0x00, 0x00, 0x00, 0x8c, 0x00, 0x00, 0x00, 0x6c, 0x00, 0x00, 0x00, 0x04, 0x00, 0x00, 0x00, 
    0x56, 0xf0, 0xff, 0xff, 0x04, 0x00, 0x00, 0x00, 0x58, 0x00, 0x00, 0x00, 0x0c, 0x00, 0x00, 0x00, 
    0x08, 0x00, 0x0e, 0x00, 0x08, 0x00, 0x04, 0x00, 0x08, 0x00, 0x00, 0x00, 0x10, 0x00, 0x00, 0x00, 
    0x28, 0x00, 0x00, 0x00, 0x00, 0x00, 0x06, 0x00, 0x08, 0x00, 0x04, 0x00, 0x06, 0x00, 0x00, 0x00, 
    0x04, 0x00, 0x00, 0x00, 0x01, 0x00, 0x00, 0x00, 0xeb, 0x03, 0x00, 0x00, 0x00, 0x00, 0x0a, 0x00, 
    0x10, 0x00, 0x0c, 0x00, 0x08, 0x00, 0x04, 0x00, 0x0a, 0x00, 0x00, 0x00, 0x02, 0x00, 0x00, 0x00, 
    0x02, 0x00, 0x00, 0x00, 0x04, 0x00, 0x00, 0x00, 0x06, 0x00, 0x00, 0x00, 0x32, 0x2e, 0x31, 0x30, 
    0x2e, 0x30, 0x00, 0x00, 0xba, 0xf0, 0xff, 0xff, 0x04, 0x00, 0x00, 0x00, 0x10, 0x00, 0x00, 0x00, 
    0x31, 0x2e, 0x31, 0x34, 0x2e, 0x30, 0x00, 0x00, 0x00, 0x00, 0x00, 0x00, 0x00, 0x00, 0x00, 0x00, 
    0xbc, 0xd6, 0xff, 0xff, 0xc0, 0xd6, 0xff, 0xff, 0xc4, 0xd6, 0xff, 0xff, 0xc8, 0xd6, 0xff, 0xff, 
    0xcc, 0xd6, 0xff, 0xff, 0xd0, 0xd6, 0xff, 0xff, 0xd4, 0xd6, 0xff, 0xff, 0xd8, 0xd6, 0xff, 0xff, 
    0xdc, 0xd6, 0xff, 0xff, 0xe0, 0xd6, 0xff, 0xff, 0xe4, 0xd6, 0xff, 0xff, 0xe8, 0xd6, 0xff, 0xff, 
    0xec, 0xd6, 0xff, 0xff, 0xf0, 0xd6, 0xff, 0xff, 0xf4, 0xd6, 0xff, 0xff, 0x12, 0xf1, 0xff, 0xff, 
    0x04, 0x00, 0x00, 0x00, 0x12, 0x00, 0x00, 0x00, 0xe8, 0xd1, 0x4f, 0xbe, 0x72, 0x19, 0xfb, 0x84, 
    0x4d, 0x81, 0x1c, 0x4a, 0xe1, 0xa4, 0x92, 0xed, 0x81, 0x19, 0x00, 0x00, 0x32, 0xf1, 0xff, 0xff, 
    0x04, 0x00, 0x00, 0x00, 0x08, 0x00, 0x00, 0x00, 0x00, 0x00, 0x00, 0x00, 0x00, 0x00, 0x00, 0x00, 
    0x46, 0xf1, 0xff, 0xff, 0x04, 0x00, 0x00, 0x00, 0x10, 0x00, 0x00, 0x00, 0x7f, 0x0a, 0xf4, 0x81, 
    0x81, 0x32, 0x2a, 0x81, 0x81, 0xaa, 0x7f, 0x2f, 0x81, 0x02, 0x1b, 0x7f, 0x62, 0xf1, 0xff, 0xff, 
    0x04, 0x00, 0x00, 0x00, 0x20, 0x00, 0x00, 0x00, 0x4f, 0x03, 0x00, 0x00, 0x08, 0xd7, 0xff, 0xff, 
    0x13, 0x11, 0x00, 0x00, 0x9b, 0xd4, 0xff, 0xff, 0x74, 0xe4, 0xff, 0xff, 0xf4, 0x0e, 0x00, 0x00, 
    0xf8, 0x01, 0x00, 0x00, 0x5b, 0x28, 0x00, 0x00, 0x8e, 0xf1, 0xff, 0xff, 0x04, 0x00, 0x00, 0x00, 
    0x48, 0x00, 0x00, 0x00, 0xc3, 0x88, 0x7f, 0x2e, 0x73, 0x3a, 0x0e, 0x43, 0x5f, 0x0f, 0xe0, 0x9f, 
    0xc2, 0xef, 0x81, 0x49, 0x7d, 0x21, 0xb5, 0x7f, 0x75, 0x0f, 0x34, 0xf8, 0x81, 0x05, 0x06, 0x18, 
    0xd6, 0x38, 0x2d, 0x06, 0x6b, 0x7e, 0xc8, 0x58, 0xdd, 0x19, 0x9c, 0x43, 0x59, 0xdb, 0x2f, 0xc1, 
    0x7f, 0x4e, 0x31, 0x7f, 0xc6, 0x7f, 0xa0, 0x46, 0xe8, 0xcc, 0x09, 0x14, 0xe6, 0xca, 0x3d, 0x3e, 
    0x01, 0x68, 0xb7, 0x02, 0x66, 0x50, 0x1d, 0xe4, 0x9d, 0x7f, 0xf7, 0x55, 0xe2, 0xf1, 0xff, 0xff, 
    0x04, 0x00, 0x00, 0x00, 0x20, 0x00, 0x00, 0x00, 0x00, 0x00, 0x00, 0x00, 0x00, 0x00, 0x00, 0x00, 
    0x00, 0x00, 0x00, 0x00, 0x00, 0x00, 0x00, 0x00, 0x00, 0x00, 0x00, 0x00, 0x00, 0x00, 0x00, 0x00, 
    0x00, 0x00, 0x00, 0x00, 0x00, 0x00, 0x00, 0x00, 0x0e, 0xf2, 0xff, 0xff, 0x04, 0x00, 0x00, 0x00, 
    0x80, 0x00, 0x00, 0x00, 0x31, 0xed, 0x6d, 0x3a, 0x7f, 0xc4, 0x6e, 0xb6, 0x03, 0xad, 0xfa, 0x2e, 
    0x81, 0x34, 0x12, 0xb0, 0x18, 0xe3, 0x15, 0xb9, 0x7f, 0x9f, 0xfe, 0xfa, 0xff, 0x18, 0x81, 0x3a, 
    0xde, 0xf7, 0xc6, 0x3e, 0x69, 0xbd, 0x28, 0x81, 0x34, 0x08, 0x5a, 0xab, 0xcc, 0x17, 0xb4, 0xd5, 
    0x81, 0x19, 0xe9, 0xb4, 0x31, 0x9a, 0x5b, 0x66, 0x18, 0x89, 0x81, 0xad, 0x25, 0x2d, 0xfd, 0xbd, 
    0x81, 0x3b, 0x30, 0xc1, 0xa9, 0xf5, 0xb5, 0xd7, 0x16, 0x3e, 0x7f, 0xb5, 0xd3, 0x0d, 0x25, 0x14, 
    0xec, 0xaf, 0x81, 0xe8, 0xba, 0xda, 0x3c, 0x26, 0xf0, 0xcd, 0x7f, 0xe0, 0x19, 0xc0, 0x9e, 0xc0, 
    0x06, 0x43, 0x81, 0xac, 0xc2, 0xdf, 0xb7, 0x06, 0x2b, 0x81, 0xf1, 0x1f, 0xe4, 0x81, 0xff, 0x23, 
    0x22, 0xe8, 0xfb, 0x29, 0xae, 0xae, 0xb3, 0x81, 0x15, 0x2c, 0xde, 0x0b, 0x0e, 0x7f, 0x16, 0x08, 
    0x0d, 0x46, 0x41, 0x8e, 0x9a, 0xf2, 0xff, 0xff, 0x04, 0x00, 0x00, 0x00, 0x40, 0x00, 0x00, 0x00, 
    0xe3, 0x00, 0x00, 0x00, 0xd8, 0x00, 0x00, 0x00, 0x45, 0x01, 0x00, 0x00, 0x77, 0xfa, 0xff, 0xff, 
    0x80, 0x03, 0x00, 0x00, 0x93, 0xff, 0xff, 0xff, 0x40, 0x02, 0x00, 0x00, 0xb3, 0xfe, 0xff, 0xff, 
    0xac, 0x00, 0x00, 0x00, 0xe0, 0xfd, 0xff, 0xff, 0x66, 0x01, 0x00, 0x00, 0x3b, 0x00, 0x00, 0x00, 
    0x5d, 0x01, 0x00, 0x00, 0x6b, 0x00, 0x00, 0x00, 0x83, 0xff, 0xff, 0xff, 0xcc, 0xfe, 0xff, 0xff, 
    0xe6, 0xf2, 0xff, 0xff, 0x04, 0x00, 0x00, 0x00, 0x90, 0x00, 0x00, 0x00, 0x96, 0x81, 0x97, 0x9f, 
    0x65, 0x70, 0x7f, 0x63, 0x55, 0x5a, 0x7f, 0x2e, 0x7b, 0x62, 0x7f, 0x83, 0xae, 0xa9, 0x86, 0xbd, 
    0x7f, 0x51, 0x54, 0x57, 0x53, 0x4a, 0x50, 0x15, 0x7b, 0x43, 0x5b, 0x91, 0xbe, 0x82, 0x82, 0xc0, 
    0x7b, 0x5b, 0x1f, 0x6e, 0x76, 0x55, 0x36, 0x56, 0x3f, 0x72, 0x6c, 0x95, 0xc8, 0x9f, 0x81, 0xbb, 
    0x67, 0x55, 0x55, 0x2c, 0x71, 0x61, 0x3f, 0x2e, 0x6a, 0x1b, 0x2f, 0xb8, 0xdb, 0x03, 0x98, 0xb1, 
    0x48, 0x41, 0x21, 0x53, 0x72, 0x3b, 0x4b, 0x3b, 0x7f, 0x70, 0x2f, 0xd2, 0xd1, 0x9a, 0x96, 0xc9, 
    0x56, 0x46, 0x25, 0x53, 0x7e, 0x48, 0x5a, 0x3e, 0x76, 0x63, 0x50, 0xf3, 0x81, 0xa8, 0x93, 0x81, 
    0x77, 0x59, 0x6a, 0x50, 0x71, 0x7f, 0x65, 0x69, 0x2d, 0x7f, 0x40, 0xb9, 0xaf, 0xdf, 0xc4, 0x9d, 
    0x37, 0x5d, 0x44, 0x50, 0x72, 0x56, 0x4e, 0x58, 0x31, 0x69, 0x3a, 0x81, 0xc0, 0x86, 0xbe, 0xbb, 
    0x3d, 0x7f, 0x38, 0x7f, 0x7f, 0x3e, 0x6c, 0x7f, 0x21, 0x4b, 0x72, 0xce, 0x82, 0xf3, 0xff, 0xff, 
    0x04, 0x00, 0x00, 0x00, 0x40, 0x00, 0x00, 0x00, 0x00, 0x00, 0x00, 0x00, 0x00, 0x00, 0x00, 0x00, 
    0x00, 0x00, 0x00, 0x00, 0x00, 0x00, 0x00, 0x00, 0x00, 0x00, 0x00, 0x00, 0x00, 0x00, 0x00, 0x00, 
    0x00, 0x00, 0x00, 0x00, 0x00, 0x00, 0x00, 0x00, 0x00, 0x00, 0x00, 0x00, 0x00, 0x00, 0x00, 0x00, 
    0x00, 0x00, 0x00, 0x00, 0x00, 0x00, 0x00, 0x00, 0x00, 0x00, 0x00, 0x00, 0x00, 0x00, 0x00, 0x00, 
    0x00, 0x00, 0x00, 0x00, 0x00, 0x00, 0x00, 0x00, 0xce, 0xf3, 0xff, 0xff, 0x04, 0x00, 0x00, 0x00, 
    0x00, 0x02, 0x00, 0x00, 0x87, 0xef, 0x14, 0x5f, 0xd1, 0x53, 0x0e, 0x40, 0x8e, 0x81, 0x70, 0x43, 
    0x1f, 0x19, 0x75, 0x36, 0x2a, 0x96, 0xd3, 0x1c, 0x08, 0x2c, 0x81, 0x3c, 0xd4, 0x6b, 0x02, 0xdf, 
    0xf7, 0x08, 0x37, 0xce, 0xbe, 0x51, 0x81, 0xf7, 0xd2, 0xd4, 0xe1, 0x48, 0x07, 0xee, 0xbb, 0xd2, 
    0xdf, 0xb0, 0x03, 0x09, 0xe8, 0xa8, 0xce, 0xda, 0x28, 0x49, 0xca, 0x19, 0x04, 0xc4, 0xee, 0xef, 
    0x7f, 0xd4, 0xbf, 0xc1, 0x36, 0xcd, 0x23, 0xfa, 0x2c, 0xc0, 0xc7, 0x7f, 0x32, 0x14, 0x2f, 0xf5, 
    0xe2, 0x01, 0xf4, 0xf2, 0x29, 0x49, 0x09, 0x2e, 0xb8, 0x4f, 0xe4, 0x7f, 0xfd, 0xe3, 0x56, 0x32, 
    0x13, 0x0f, 0xf7, 0x30, 0x2d, 0x99, 0xb7, 0x10, 0x05, 0x6f, 0x23, 0x32, 0x27, 0xe5, 0x19, 0xc7, 
    0x41, 0x77, 0x81, 0xc1, 0xce, 0xea, 0xf9, 0x24, 0x1a, 0xef, 0xbc, 0x63, 0xf5, 0xdb, 0xc8, 0x7f, 
    0xb4, 0x37, 0xcb, 0xdf, 0x35, 0x1e, 0xdf, 0x54, 0x6e, 0x1a, 0xe1, 0x3e, 0xd4, 0xed, 0x0f, 0x30, 
    0x59, 0x5b, 0x04, 0x81, 0x00, 0x2d, 0x38, 0x44, 0xde, 0x11, 0x55, 0x4b, 0x10, 0xc3, 0x48, 0x0d, 
    0x05, 0xf7, 0x7f, 0x63, 0x06, 0x81, 0xe8, 0xe7, 0xec, 0xee, 0xec, 0xe9, 0xdd, 0x3c, 0x46, 0xa1, 
    0x32, 0xf1, 0x4d, 0xbe, 0x26, 0x05, 0x7f, 0x21, 0x27, 0xdf, 0xfc, 0xe5, 0x64, 0x19, 0x4b, 0x40, 
    0x1e, 0x14, 0xc7, 0x18, 0xf0, 0xd0, 0xfb, 0x60, 0xfb, 0x07, 0xc4, 0x41, 0xf7, 0x5a, 0xc6, 0x98, 
    0xfe, 0x02, 0x7f, 0x92, 0x16, 0xf8, 0xc1, 0xc2, 0x08, 0xa8, 0x11, 0x3e, 0x41, 0xa2, 0x0b, 0x1d, 
    0x36, 0x2e, 0x4d, 0x7f, 0xd0, 0xe7, 0x41, 0xdd, 0x77, 0xe4, 0x2a, 0x3b, 0x91, 0x08, 0x09, 0xa4, 
    0xad, 0xef, 0x23, 0x81, 0xc5, 0x06, 0x09, 0xf2, 0xcb, 0xff, 0x3a, 0x35, 0x16, 0x4f, 0x81, 0x9e, 
    0xb8, 0x84, 0xb1, 0x2c, 0x4f, 0x93, 0x13, 0x0b, 0x25, 0x35, 0x2f, 0x1b, 0x54, 0xdb, 0x81, 0xa3, 
    0x6e, 0xe4, 0x1c, 0xce, 0x20, 0x95, 0x41, 0xe7, 0xde, 0x7f, 0x66, 0xe0, 0xfd, 0x81, 0xc9, 0x06, 
    0xdd, 0x11, 0xf9, 0x0a, 0xb1, 0x81, 0x21, 0x23, 0xe2, 0x0e, 0xc9, 0x1e, 0xb5, 0xae, 0x19, 0x18, 
    0xf6, 0xb8, 0x66, 0x19, 0xe1, 0xf6, 0x0d, 0xe2, 0x0d, 0xfa, 0x00, 0xca, 0x20, 0x03, 0x7f, 0x04, 
    0x21, 0xf9, 0xa3, 0x16, 0xb2, 0xb7, 0x2e, 0x2b, 0x5e, 0x04, 0x81, 0x3e, 0xdb, 0x3e, 0xc3, 0x3b, 
    0xbc, 0x0b, 0x14, 0x08, 0x00, 0xff, 0x2d, 0x1a, 0xe1, 0x2f, 0x2d, 0xfc, 0x52, 0xdd, 0xee, 0xf8, 
    0xef, 0xe2, 0x3a, 0x7f, 0x34, 0x92, 0xec, 0xe3, 0x14, 0x7f, 0x33, 0x05, 0x15, 0xa8, 0xd9, 0xe2, 
    0x6a, 0x10, 0xa3, 0xc4, 0xe7, 0xcd, 0x14, 0x11, 0x17, 0xe4, 0xf7, 0x03, 0x5e, 0x16, 0x81, 0xe7, 
    0x39, 0xe3, 0xed, 0x1e, 0x81, 0xe7, 0xe3, 0x5b, 0x06, 0x75, 0xeb, 0xdf, 0x92, 0x9c, 0x06, 0x49, 
    0x54, 0x45, 0xfe, 0xe8, 0xec, 0xac, 0xdf, 0x33, 0x81, 0x47, 0x55, 0x36, 0x72, 0x90, 0x9c, 0xe3, 
    0xdd, 0x2a, 0x2f, 0x3b, 0xd8, 0xef, 0x0e, 0x7f, 0xc9, 0x30, 0x13, 0xf5, 0x7b, 0xcf, 0x90, 0x06, 
    0x4c, 0x72, 0xe0, 0x18, 0xf6, 0x81, 0x1e, 0x08, 0x09, 0xe9, 0xfb, 0xe3, 0x12, 0x14, 0xa3, 0xef, 
    0x61, 0x3f, 0xf8, 0xf0, 0xb6, 0xf2, 0xf0, 0x17, 0x03, 0x46, 0xa4, 0x7f, 0xce, 0xd1, 0xfc, 0x3d, 
    0xeb, 0x20, 0xdb, 0x0d, 0x39, 0xdb, 0x7e, 0x5a, 0x7f, 0x02, 0x01, 0xce, 0x67, 0x21, 0x89, 0x14, 
    0x1e, 0x47, 0xdf, 0xd9, 0x73, 0x48, 0x7f, 0x47, 0x6b, 0xc1, 0xf6, 0x18, 0x75, 0x30, 0x6c, 0x2d, 
    0xdd, 0x6a, 0xd6, 0xd4, 0x35, 0x2e, 0xc8, 0xd4, 0x03, 0xd1, 0xcc, 0x7f, 0x37, 0x2e, 0xeb, 0xc6, 
    0xb4, 0xfc, 0xe8, 0xf5, 0xda, 0xf5, 0xff, 0xff, 0x04, 0x00, 0x00, 0x00, 0x80, 0x00, 0x00, 0x00, 
    0xf0, 0xfb, 0xff, 0xff, 0x29, 0x01, 0x00, 0x00, 0xb3, 0x03, 0x00, 0x00, 0x39, 0xf8, 0xff, 0xff, 
    0x1d, 0x03, 0x00, 0x00, 0x2c, 0x03, 0x00, 0x00, 0x5c, 0xf4, 0xff, 0xff, 0x90, 0x00, 0x00, 0x00, 
    0xa1, 0xf5, 0xff, 0xff, 0xf4, 0xfe, 0xff, 0xff, 0x6a, 0xfc, 0xff, 0xff, 0x14, 0x01, 0x00, 0x00, 
    0x25, 0x03, 0x00, 0x00, 0x74, 0xf9, 0xff, 0xff, 0x5b, 0xff, 0xff, 0xff, 0xd2, 0x08, 0x00, 0x00, 
    0xca, 0xfb, 0xff, 0xff, 0xcd, 0xff, 0xff, 0xff, 0xb5, 0x05, 0x00, 0x00, 0x35, 0xfd, 0xff, 0xff, 
    0x5f, 0x03, 0x00, 0x00, 0x1f, 0x02, 0x00, 0x00, 0xae, 0xf6, 0xff, 0xff, 0xea, 0xff, 0xff, 0xff, 
    0xfe, 0xf7, 0xff, 0xff, 0xc6, 0xff, 0xff, 0xff, 0xf4, 0xfe, 0xff, 0xff, 0x01, 0xfd, 0xff, 0xff, 
    0x34, 0x01, 0x00, 0x00, 0x41, 0x00, 0x00, 0x00, 0x83, 0x00, 0x00, 0x00, 0x7e, 0x04, 0x00, 0x00, 
    0x66, 0xf6, 0xff, 0xff, 0x04, 0x00, 0x00, 0x00, 0x00, 0x04, 0x00, 0x00, 0xfb, 0x16, 0xfe, 0xf2, 
    0x2d, 0x57, 0x08, 0x2f, 0x41, 0xbb, 0xff, 0x19, 0xec, 0x10, 0x07, 0xe5, 0xb0, 0xbe, 0xf6, 0x1f, 
    0x2b, 0x83, 0xba, 0xe6, 0x19, 0x8f, 0xc2, 0x1d, 0x26, 0xdd, 0xfb, 0x0b, 0xf8, 0x1d, 0x19, 0xb2, 
    0xf5, 0x29, 0x22, 0x2d, 0xbd, 0xe1, 0x0b, 0x18, 0xcc, 0xfe, 0xee, 0xdc, 0xcf, 0x20, 0xfe, 0x1f, 
    0x40, 0x1e, 0xc3, 0xda, 0xf1, 0x37, 0xf6, 0x12, 0x44, 0xb4, 0xf1, 0x0e, 0x35, 0xcd, 0xf0, 0xcc, 
    0xe5, 0xc5, 0xea, 0x0b, 0xb9, 0x4c, 0xf5, 0x04, 0xe8, 0xee, 0xe4, 0x05, 0x2c, 0x2e, 0x11, 0xff, 
    0xd8, 0x39, 0x1e, 0xfc, 0x2c, 0x3f, 0x1c, 0x27, 0x0a, 0xf8, 0xe4, 0x06, 0x08, 0x38, 0xd4, 0xca, 
    0xc2, 0x26, 0x47, 0x23, 0xe3, 0x08, 0x0a, 0xa5, 0xf2, 0x15, 0x0d, 0x13, 0x17, 0xd6, 0x44, 0xeb, 
    0x45, 0xeb, 0xf7, 0xef, 0x03, 0x3f, 0x0d, 0x1d, 0x54, 0xb5, 0x9d, 0xcb, 0xdf, 0x30, 0x25, 0x10, 
    0x13, 0x12, 0x2f, 0xf9, 0xda, 0xcd, 0x42, 0xee, 0x27, 0x1f, 0x05, 0x11, 0x1a, 0xfb, 0x02, 0x3d, 
    0x1d, 0xf7, 0x0c, 0xff, 0xb5, 0xf1, 0xcc, 0x28, 0x0b, 0x9d, 0xa4, 0xfd, 0x18, 0xcc, 0xef, 0x4a, 
    0x1c, 0xf8, 0xb9, 0x97, 0x51, 0x1f, 0x02, 0x29, 0x2c, 0xe9, 0xf9, 0x0f, 0x34, 0xdf, 0xfe, 0xcd, 
    0xcb, 0x03, 0xed, 0x3e, 0x44, 0xe0, 0x1e, 0x28, 0xcb, 0x42, 0x41, 0x23, 0x70, 0x17, 0xfa, 0x01, 
    0xfe, 0x18, 0xbf, 0xca, 0x0a, 0x66, 0xc6, 0x02, 0x2f, 0xf1, 0x15, 0x04, 0xf3, 0xe1, 0x2a, 0xb9, 
    0xe9, 0x2a, 0xd6, 0xfb, 0x55, 0xea, 0x1e, 0xff, 0x1b, 0xfb, 0x21, 0x2b, 0xe5, 0xdb, 0x2e, 0x14, 
    0xfc, 0x3e, 0x0a, 0xe5, 0xfa, 0x07, 0xc3, 0x4b, 0xdb, 0x0f, 0xeb, 0xee, 0xe3, 0x60, 0xde, 0x12, 
    0xb1, 0x04, 0x61, 0xf3, 0xfa, 0x1d, 0x01, 0x0e, 0x0f, 0xf3, 0x57, 0x1c, 0xea, 0xf5, 0xdc, 0x03, 
    0xdf, 0xe9, 0x23, 0xfc, 0x00, 0x12, 0xef, 0xe6, 0xeb, 0x01, 0xe3, 0x18, 0x0a, 0xea, 0xf7, 0x0c, 
    0x08, 0x07, 0xe7, 0xf8, 0xde, 0xfb, 0xeb, 0x17, 0x13, 0x0c, 0xe6, 0x11, 0xf1, 0x3a, 0xf5, 0xdb, 
    0xf4, 0x17, 0x58, 0x30, 0xb6, 0x0f, 0x04, 0xd3, 0x29, 0xfc, 0x1c, 0xdc, 0xf0, 0x17, 0x1a, 0x12, 
    0x51, 0x28, 0xd7, 0xfb, 0xc9, 0x22, 0x26, 0xe3, 0x0d, 0xb6, 0x98, 0xc6, 0x08, 0x03, 0x36, 0xc1, 
    0x21, 0x69, 0xd5, 0xf8, 0xe7, 0x5b, 0xda, 0x30, 0x28, 0x12, 0x03, 0x2e, 0xb4, 0xd4, 0xf2, 0x0d, 
    0x02, 0x1a, 0xb9, 0x94, 0xd1, 0xc6, 0xdf, 0x03, 0x28, 0xba, 0x0b, 0x25, 0xf7, 0x17, 0x32, 0x10, 
    0x44, 0x35, 0x00, 0x0e, 0x12, 0xb3, 0x35, 0x26, 0xf0, 0x02, 0x0b, 0x01, 0xd2, 0xd0, 0x02, 0x24, 
    0x05, 0xac, 0x0a, 0xba, 0xe5, 0x9c, 0x9d, 0x09, 0x41, 0xe2, 0x20, 0x0d, 0xda, 0xd5, 0xe7, 0x19, 
    0xd0, 0xe3, 0x38, 0x06, 0xf8, 0xc6, 0x04, 0xc8, 0xed, 0xfd, 0xd1, 0xd1, 0x59, 0x42, 0x01, 0x08, 
    0xf6, 0xf4, 0x62, 0x56, 0x09, 0x50, 0x48, 0x37, 0x15, 0x17, 0xe1, 0xd3, 0xed, 0xe4, 0xeb, 0xf8, 
    0xe7, 0x1e, 0xe0, 0xf9, 0xee, 0xdd, 0x11, 0xf6, 0xf6, 0x08, 0xe3, 0xe6, 0xee, 0xdf, 0x1f, 0xde, 
    0x0f, 0x04, 0x1b, 0xfb, 0x00, 0xe8, 0x0c, 0xf0, 0x1b, 0x06, 0xf2, 0x07, 0xa7, 0x19, 0x28, 0xff, 
    0x08, 0x1c, 0xd4, 0xe6, 0xb8, 0x0c, 0xd0, 0x48, 0xd3, 0x0b, 0xf5, 0xc6, 0x00, 0x3d, 0xdb, 0x2a, 
    0x05, 0x4d, 0x16, 0x02, 0xb1, 0x4b, 0x31, 0x2e, 0xe1, 0x08, 0xfb, 0x05, 0xa6, 0x37, 0x21, 0xe8, 
    0x12, 0x15, 0xe4, 0xe6, 0xb0, 0xf5, 0x1b, 0x60, 0x26, 0x35, 0xec, 0x0a, 0x18, 0x1c, 0xd4, 0x26, 
    0xe1, 0x48, 0x1e, 0x0d, 0x88, 0x3c, 0x21, 0x3a, 0xcb, 0xca, 0x25, 0xde, 0x0c, 0xf6, 0x0f, 0x17, 
    0xfe, 0x29, 0x43, 0x33, 0xfa, 0xe6, 0x2d, 0xa3, 0xf9, 0xf2, 0xd6, 0x17, 0xe9, 0xfa, 0x1b, 0x09, 
    0x3a, 0xad, 0x30, 0xac, 0x36, 0xe3, 0xdf, 0x0f, 0x5e, 0xdc, 0xba, 0xde, 0x31, 0xe1, 0x05, 0x0b, 
    0xfb, 0x1d, 0xb6, 0xb5, 0xde, 0x5d, 0xdf, 0x22, 0x1f, 0xf9, 0x2a, 0xff, 0x17, 0x32, 0x29, 0xd3, 
    0xb3, 0x49, 0x11, 0xf0, 0x3a, 0x27, 0x1a, 0xeb, 0x08, 0xf6, 0x32, 0x21, 0xed, 0x05, 0xdd, 0x2a, 
    0xd3, 0xdf, 0x47, 0xde, 0x03, 0x04, 0x12, 0xce, 0x08, 0xfc, 0xe9, 0xec, 0x7c, 0x58, 0xf6, 0xed, 
    0x02, 0x2f, 0x2b, 0x4e, 0xf7, 0x1d, 0x3c, 0x36, 0xf5, 0x02, 0xed, 0x13, 0x8b, 0x04, 0x27, 0x25, 
    0xf7, 0x05, 0xf9, 0xcb, 0x03, 0xc9, 0x26, 0x30, 0x19, 0x15, 0x07, 0x00, 0x36, 0x39, 0xd2, 0x1f, 
    0xda, 0xf7, 0x31, 0x48, 0x9f, 0xe5, 0x1f, 0x42, 0xa4, 0x2f, 0x13, 0x0d, 0xcf, 0x49, 0x19, 0xf0, 
    0x24, 0xe4, 0x0e, 0x04, 0xcf, 0xe4, 0x37, 0xea, 0x47, 0x2b, 0x0e, 0x0e, 0xd8, 0xee, 0xfb, 0x1a, 
    0x41, 0x5f, 0xd7, 0x2a, 0xc2, 0x0a, 0xe3, 0x03, 0xfb, 0xbc, 0x9d, 0xfb, 0xe2, 0xd9, 0x08, 0x17, 
    0x02, 0xfc, 0x14, 0x04, 0xe4, 0xe6, 0x07, 0x16, 0x06, 0xff, 0x12, 0xeb, 0x1a, 0x01, 0xf0, 0xed, 
    0xfb, 0x1a, 0xf2, 0xe8, 0x0f, 0x0d, 0xe1, 0x08, 0x13, 0xdc, 0xdd, 0xde, 0xeb, 0xf8, 0xf3, 0x14, 
    0xff, 0xff, 0xdd, 0x14, 0xfd, 0xe5, 0xe7, 0xeb, 0xf8, 0x16, 0x14, 0xd5, 0x1f, 0xfb, 0xdf, 0x0e, 
    0xe2, 0xfe, 0x00, 0x08, 0xfb, 0xfb, 0x02, 0x14, 0x02, 0xdf, 0xf0, 0x0f, 0x7f, 0x24, 0x04, 0xb6, 
    0xdb, 0xff, 0xda, 0xe6, 0xf6, 0x5e, 0xda, 0xdb, 0x0d, 0xfc, 0x15, 0x2e, 0x19, 0xfd, 0x48, 0xed, 
    0xea, 0x25, 0xb4, 0x22, 0x4d, 0xf0, 0xfb, 0xe7, 0x25, 0xe7, 0x09, 0x2a, 0xfe, 0xd7, 0xc9, 0x5e, 
    0xf0, 0xf5, 0x30, 0xe6, 0x31, 0xc7, 0x42, 0xe0, 0xdc, 0x17, 0xec, 0xec, 0x60, 0x31, 0x10, 0xe8, 
    0xe3, 0xc9, 0x5a, 0x19, 0x2b, 0xe1, 0x00, 0x41, 0x04, 0x30, 0xe1, 0xea, 0x37, 0xff, 0x11, 0xa5, 
    0xf1, 0x0e, 0xb8, 0x07, 0xc0, 0x4b, 0xc2, 0x23, 0xf8, 0x03, 0xb8, 0xf9, 0xfe, 0xd4, 0x23, 0x28, 
    0x45, 0x1d, 0xbc, 0xf9, 0x24, 0x24, 0x0e, 0x0c, 0x0a, 0xd3, 0x17, 0x26, 0xf7, 0xd3, 0x35, 0x2b, 
    0x28, 0x2f, 0xcc, 0xbd, 0x32, 0x41, 0xe7, 0x5c, 0x0d, 0xdc, 0xd5, 0x1b, 0x06, 0xdd, 0xfd, 0x1d, 
    0xd1, 0x17, 0xe7, 0x15, 0x12, 0xcb, 0xe5, 0xe9, 0xeb, 0x37, 0x68, 0x01, 0x60, 0xf6, 0xd9, 0x00, 
    0x1d, 0x4a, 0x1b, 0x04, 0x4d, 0x2b, 0xfe, 0xf2, 0xe7, 0xe7, 0x01, 0xe9, 0x08, 0xb0, 0x32, 0xf9, 
    0xe4, 0xc5, 0x00, 0xb4, 0x66, 0xc7, 0x0b, 0xbf, 0x49, 0xfc, 0x13, 0xfd, 0x0a, 0x01, 0x10, 0x56, 
    0xef, 0xe2, 0x1d, 0xd6, 0xef, 0xc9, 0x44, 0xc2, 0x36, 0xed, 0x1d, 0xfa, 0x6c, 0xf2, 0x27, 0xe2, 
    0xda, 0x0c, 0x43, 0x59, 0xfa, 0x02, 0x15, 0x29, 0xf5, 0x2d, 0xbc, 0x04, 0x38, 0x49, 0x38, 0x0e, 
    0x21, 0xdb, 0xed, 0xce, 0x1e, 0x0e, 0x3a, 0x97, 0x0e, 0x20, 0x31, 0x24, 0x24, 0xe5, 0x1d, 0xe3, 
    0x01, 0xf7, 0xb9, 0x06, 0xf4, 0xbc, 0xa7, 0xdb, 0xfd, 0xef, 0xcf, 0x27, 0xd8, 0x1f, 0x0e, 0xe2, 
    0xeb, 0x02, 0xe9, 0xf7, 0xec, 0x23, 0x1c, 0xd8, 0x3d, 0x07, 0x1e, 0x32, 0x0f, 0x14, 0x23, 0xdd, 
    0x1a, 0x45, 0xda, 0x2c, 0xa0, 0x39, 0x32, 0xf1, 0xb9, 0xe8, 0x8e, 0x08, 0x4e, 0xf1, 0x2c, 0xdc, 
    0x28, 0x2d, 0xc7, 0xe4, 0xdb, 0x58, 0x15, 0xf6, 0x0c, 0xf5, 0x37, 0x3f, 0xe2, 0x24, 0x0a, 0xe7, 
    0xcb, 0x43, 0xbe, 0xe1, 0x0e, 0x04, 0xe3, 0xe0, 0x03, 0xe5, 0xfc, 0x34, 0x72, 0xfa, 0xff, 0xff, 
    0x04, 0x00, 0x00, 0x00, 0x80, 0x00, 0x00, 0x00, 0xc5, 0x02, 0x00, 0x00, 0x63, 0x03, 0x00, 0x00, 
    0x45, 0x07, 0x00, 0x00, 0x00, 0x01, 0x00, 0x00, 0x81, 0x05, 0x00, 0x00, 0xda, 0xfa, 0xff, 0xff, 
    0xf1, 0xfd, 0xff, 0xff, 0xbb, 0x04, 0x00, 0x00, 0xb0, 0xfc, 0xff, 0xff, 0x75, 0x03, 0x00, 0x00, 
    0xfa, 0x02, 0x00, 0x00, 0xa0, 0x03, 0x00, 0x00, 0xcf, 0x01, 0x00, 0x00, 0xe4, 0xfe, 0xff, 0xff, 
    0xbd, 0x01, 0x00, 0x00, 0x97, 0x00, 0x00, 0x00, 0x62, 0xff, 0xff, 0xff, 0x6e, 0x02, 0x00, 0x00, 
    0x83, 0xff, 0xff, 0xff, 0x73, 0x00, 0x00, 0x00, 0x0b, 0x03, 0x00, 0x00, 0x04, 0xfd, 0xff, 0xff, 
    0xb6, 0xfc, 0xff, 0xff, 0xa5, 0xfc, 0xff, 0xff, 0x9c, 0xfc, 0xff, 0xff, 0x14, 0x03, 0x00, 0x00, 
    0x2c, 0x00, 0x00, 0x00, 0x77, 0x04, 0x00, 0x00, 0x6d, 0xfd, 0xff, 0xff, 0x15, 0x04, 0x00, 0x00, 
    0xff, 0x04, 0x00, 0x00, 0x01, 0x02, 0x00, 0x00, 0xfe, 0xfa, 0xff, 0xff, 0x04, 0x00, 0x00, 0x00, 
    0x40, 0x01, 0x00, 0x00, 0x11, 0xe5, 0xee, 0xff, 0x11, 0x2b, 0x07, 0xf5, 0xfd, 0x04, 0x0b, 0x12, 
    0xfc, 0x02, 0xf1, 0x0b, 0x01, 0x01, 0xfc, 0x19, 0x1f, 0xf7, 0xf1, 0x04, 0x0b, 0xdd, 0x06, 0xff, 
    0x10, 0x36, 0x23, 0x10, 0x20, 0x17, 0xc5, 0xac, 0x10, 0xcf, 0xae, 0x13, 0x0a, 0xd1, 0x14, 0x1c, 
    0xbf, 0xfe, 0x23, 0x24, 0xeb, 0xd2, 0xa8, 0x25, 0x09, 0xf4, 0x0f, 0xb1, 0xae, 0x02, 0x0f, 0xaf, 
    0xbc, 0xe0, 0xe4, 0xfb, 0xd1, 0xfd, 0x17, 0x20, 0xf9, 0xd7, 0x0d, 0x03, 0xfd, 0x11, 0xc0, 0xcc, 
    0x16, 0xf0, 0xd2, 0xb3, 0x15, 0x05, 0x05, 0xbe, 0xd3, 0xfe, 0xfc, 0x13, 0x1e, 0xf2, 0xce, 0x11, 
    0x15, 0xef, 0xf6, 0x09, 0xbd, 0x0a, 0x0d, 0x16, 0xfd, 0xa7, 0x09, 0x03, 0x0a, 0x38, 0x02, 0xb6, 
    0x08, 0x07, 0x0e, 0x0b, 0xed, 0x06, 0x00, 0xdb, 0x1a, 0x02, 0x09, 0x0a, 0xc8, 0x03, 0xec, 0xd5, 
    0xe1, 0xc9, 0x30, 0x0b, 0x1e, 0x00, 0xd4, 0x04, 0xdf, 0xfb, 0x1b, 0x0b, 0xfb, 0xe0, 0x15, 0x16, 
    0xc4, 0x0e, 0xc4, 0xca, 0x0e, 0xfd, 0xbe, 0xd6, 0xa9, 0xff, 0x02, 0x11, 0xf3, 0x05, 0x18, 0x1e, 
    0xb5, 0xe3, 0xc9, 0x0f, 0x07, 0x0b, 0xe0, 0x18, 0x18, 0xcb, 0xa6, 0x0c, 0xf4, 0x1a, 0xb0, 0x12, 
    0x1b, 0xf3, 0x00, 0x03, 0x1b, 0xc0, 0x0d, 0x0c, 0x11, 0xf6, 0x04, 0xb2, 0x21, 0xc3, 0xc4, 0xec, 
    0x18, 0xef, 0xfd, 0xcc, 0xc3, 0xfe, 0x0c, 0xd6, 0xc1, 0x1a, 0x1e, 0x0f, 0xf2, 0xdc, 0x0a, 0xd9, 
    0xe4, 0xff, 0x06, 0x03, 0xca, 0x0f, 0xf6, 0xde, 0xce, 0x02, 0x00, 0x16, 0xd6, 0x08, 0x14, 0x13, 
    0xc6, 0xdf, 0xde, 0x13, 0x28, 0x12, 0xc3, 0x2b, 0x0b, 0xce, 0x06, 0x9c, 0xf3, 0x29, 0xfd, 0x11, 
    0xd8, 0xf5, 0xbd, 0xb3, 0x1b, 0x81, 0xd1, 0xb4, 0x0d, 0x00, 0xfb, 0x12, 0xef, 0x0c, 0xb1, 0x20, 
    0xee, 0x12, 0xdd, 0xec, 0xfb, 0x97, 0xfb, 0xbf, 0xfc, 0x28, 0xdf, 0x11, 0x00, 0x9e, 0xcb, 0xee, 
    0x20, 0x0a, 0x0f, 0x0f, 0xdf, 0xff, 0x0d, 0x1e, 0xcd, 0xfd, 0x0d, 0xa5, 0x27, 0xa3, 0x11, 0x0e, 
    0x17, 0xf6, 0xd0, 0x9c, 0xd7, 0xe5, 0x0b, 0xd2, 0xc0, 0x1e, 0x12, 0x0a, 0x03, 0xce, 0xbc, 0xe4, 
    0x15, 0x07, 0x11, 0x0d, 0xab, 0x0a, 0x07, 0x12, 0xec, 0xf2, 0x07, 0x09, 0x03, 0xff, 0x0c, 0xaf, 
    0x09, 0xf0, 0x14, 0xfc, 0x4a, 0xfc, 0xff, 0xff, 0x04, 0x00, 0x00, 0x00, 0x28, 0x00, 0x00, 0x00, 
    0xff, 0xf6, 0xff, 0xff, 0x10, 0x04, 0x00, 0x00, 0xc7, 0xfe, 0xff, 0xff, 0x23, 0xff, 0xff, 0xff, 
    0xed, 0x03, 0x00, 0x00, 0x61, 0x02, 0x00, 0x00, 0xf5, 0xfd, 0xff, 0xff, 0x8b, 0x02, 0x00, 0x00, 
    0xd4, 0x01, 0x00, 0x00, 0xdd, 0x00, 0x00, 0x00, 0x7e, 0xfc, 0xff, 0xff, 0x04, 0x00, 0x00, 0x00, 
    0x08, 0x00, 0x00, 0x00, 0x01, 0x00, 0x00, 0x00, 0x02, 0x00, 0x00, 0x00, 0x78, 0xe2, 0xff, 0xff, 
    0x7c, 0xe2, 0xff, 0xff, 0x0f, 0x00, 0x00, 0x00, 0x4d, 0x4c, 0x49, 0x52, 0x20, 0x43, 0x6f, 0x6e, 
    0x76, 0x65, 0x72, 0x74, 0x65, 0x64, 0x2e, 0x00, 0x01, 0x00, 0x00, 0x00, 0x14, 0x00, 0x00, 0x00, 
    0x00, 0x00, 0x0e, 0x00, 0x18, 0x00, 0x14, 0x00, 0x10, 0x00, 0x0c, 0x00, 0x08, 0x00, 0x04, 0x00, 
    0x0e, 0x00, 0x00, 0x00, 0x14, 0x00, 0x00, 0x00, 0x1c, 0x00, 0x00, 0x00, 0x00, 0x04, 0x00, 0x00, 
    0x04, 0x04, 0x00, 0x00, 0x08, 0x04, 0x00, 0x00, 0x04, 0x00, 0x00, 0x00, 0x6d, 0x61, 0x69, 0x6e, 
    0x00, 0x00, 0x00, 0x00, 0x0f, 0x00, 0x00, 0x00, 0x9c, 0x03, 0x00, 0x00, 0x3c, 0x03, 0x00, 0x00, 
    0xf0, 0x02, 0x00, 0x00, 0x9c, 0x02, 0x00, 0x00, 0x5c, 0x02, 0x00, 0x00, 0x18, 0x02, 0x00, 0x00, 
    0xe4, 0x01, 0x00, 0x00, 0xa0, 0x01, 0x00, 0x00, 0x60, 0x01, 0x00, 0x00, 0x1c, 0x01, 0x00, 0x00, 
    0xe8, 0x00, 0x00, 0x00, 0xb4, 0x00, 0x00, 0x00, 0x70, 0x00, 0x00, 0x00, 0x38, 0x00, 0x00, 0x00, 
    0x04, 0x00, 0x00, 0x00, 0x0a, 0xfd, 0xff, 0xff, 0x14, 0x00, 0x00, 0x00, 0x00, 0x00, 0x00, 0x09, 
    0x14, 0x00, 0x00, 0x00, 0x18, 0x00, 0x00, 0x00, 0x06, 0x00, 0x00, 0x00, 0x42, 0xfd, 0xff, 0xff, 
    0x00, 0x00, 0x80, 0x3f, 0x01, 0x00, 0x00, 0x00, 0x20, 0x00, 0x00, 0x00, 0x01, 0x00, 0x00, 0x00, 
    0x1f, 0x00, 0x00, 0x00, 0x3a, 0xfd, 0xff, 0xff, 0x14, 0x00, 0x00, 0x00, 0x00, 0x00, 0x00, 0x08, 
    0x10, 0x00, 0x00, 0x00, 0x14, 0x00, 0x00, 0x00, 0x05, 0x00, 0x00, 0x00, 0x58, 0xe3, 0xff, 0xff, 
    0x01, 0x00, 0x00, 0x00, 0x1f, 0x00, 0x00, 0x00, 0x03, 0x00, 0x00, 0x00, 0x1e, 0x00, 0x00, 0x00, 
    0x03, 0x00, 0x00, 0x00, 0x02, 0x00, 0x00, 0x00, 0x6e, 0xfd, 0xff, 0xff, 0x1c, 0x00, 0x00, 0x00, 
    0x00, 0x00, 0x00, 0x08, 0x1c, 0x00, 0x00, 0x00, 0x20, 0x00, 0x00, 0x00, 0x05, 0x00, 0x00, 0x00, 
    0x00, 0x00, 0x06, 0x00, 0x08, 0x00, 0x07, 0x00, 0x06, 0x00, 0x00, 0x00, 0x00, 0x00, 0x00, 0x01, 
    0x01, 0x00, 0x00, 0x00, 0x1e, 0x00, 0x00, 0x00, 0x03, 0x00, 0x00, 0x00, 0x1d, 0x00, 0x00, 0x00, 
    0x05, 0x00, 0x00, 0x00, 0x04, 0x00, 0x00, 0x00, 0xae, 0xfd, 0xff, 0xff, 0x14, 0x00, 0x00, 0x00, 
    0x00, 0x00, 0x00, 0x1b, 0x10, 0x00, 0x00, 0x00, 0x14, 0x00, 0x00, 0x00, 0x04, 0x00, 0x00, 0x00, 
    0xcc, 0xe3, 0xff, 0xff, 0x01, 0x00, 0x00, 0x00, 0x1d, 0x00, 0x00, 0x00, 0x02, 0x00, 0x00, 0x00, 
    0x1c, 0x00, 0x00, 0x00, 0x01, 0x00, 0x00, 0x00, 0xde, 0xfd, 0xff, 0xff, 0x14, 0x00, 0x00, 0x00, 
    0x00, 0x00, 0x00, 0x4b, 0x14, 0x00, 0x00, 0x00, 0x18, 0x00, 0x00, 0x00, 0x02, 0x00, 0x00, 0x00, 
    0x16, 0xfe, 0xff, 0xff, 0xcd, 0xcc, 0xcc, 0x3d, 0x01, 0x00, 0x00, 0x00, 0x1c, 0x00, 0x00, 0x00, 
    0x01, 0x00, 0x00, 0x00, 0x1b, 0x00, 0x00, 0x00, 0x0e, 0xfe, 0xff, 0xff, 0x14, 0x00, 0x00, 0x00, 
    0x00, 0x00, 0x00, 0x01, 0x1c, 0x00, 0x00, 0x00, 0x20, 0x00, 0x00, 0x00, 0x01, 0x00, 0x00, 0x00, 
    0xfe, 0xfd, 0xff, 0xff, 0x01, 0x00, 0x00, 0x00, 0x01, 0x00, 0x00, 0x00, 0x00, 0x00, 0x00, 0x01, 
    0x01, 0x00, 0x00, 0x00, 0x1b, 0x00, 0x00, 0x00, 0x03, 0x00, 0x00, 0x00, 0x1a, 0x00, 0x00, 0x00, 
    0x07, 0x00, 0x00, 0x00, 0x06, 0x00, 0x00, 0x00, 0xf2, 0xfd, 0xff, 0xff, 0x10, 0x00, 0x00, 0x00, 
    0x00, 0x00, 0x00, 0x02, 0x18, 0x00, 0x00, 0x00, 0x1c, 0x00, 0x00, 0x00, 0xe4, 0xfd, 0xff, 0xff, 
    0x01, 0x00, 0x00, 0x00, 0x01, 0x00, 0x00, 0x00, 0x01, 0x00, 0x00, 0x00, 0x01, 0x00, 0x00, 0x00, 
    0x1a, 0x00, 0x00, 0x00, 0x03, 0x00, 0x00, 0x00, 0x19, 0x00, 0x00, 0x00, 0x09, 0x00, 0x00, 0x00, 
    0x08, 0x00, 0x00, 0x00, 0x8a, 0xfe, 0xff, 0xff, 0x14, 0x00, 0x00, 0x00, 0x00, 0x00, 0x00, 0x05, 
    0x24, 0x00, 0x00, 0x00, 0x28, 0x00, 0x00, 0x00, 0x03, 0x00, 0x00, 0x00, 0x12, 0xff, 0xff, 0xff, 
    0x02, 0x00, 0x00, 0x00, 0x02, 0x00, 0x00, 0x00, 0x02, 0x00, 0x00, 0x00, 0x02, 0x00, 0x00, 0x00, 
    0x00, 0x00, 0x00, 0x01, 0x01, 0x00, 0x00, 0x00, 0x19, 0x00, 0x00, 0x00, 0x01, 0x00, 0x00, 0x00, 
    0x18, 0x00, 0x00, 0x00, 0xca, 0xfe, 0xff, 0xff, 0x14, 0x00, 0x00, 0x00, 0x00, 0x00, 0x00, 0x4b, 
    0x14, 0x00, 0x00, 0x00, 0x18, 0x00, 0x00, 0x00, 0x02, 0x00, 0x00, 0x00, 0x02, 0xff, 0xff, 0xff, 
    0xcd, 0xcc, 0xcc, 0x3d, 0x01, 0x00, 0x00, 0x00, 0x18, 0x00, 0x00, 0x00, 0x01, 0x00, 0x00, 0x00, 
    0x17, 0x00, 0x00, 0x00, 0xfa, 0xfe, 0xff, 0xff, 0x14, 0x00, 0x00, 0x00, 0x00, 0x00, 0x00, 0x01, 
    0x1c, 0x00, 0x00, 0x00, 0x20, 0x00, 0x00, 0x00, 0x01, 0x00, 0x00, 0x00, 0xea, 0xfe, 0xff, 0xff, 
    0x01, 0x00, 0x00, 0x00, 0x01, 0x00, 0x00, 0x00, 0x00, 0x00, 0x00, 0x01, 0x01, 0x00, 0x00, 0x00, 
    0x17, 0x00, 0x00, 0x00, 0x03, 0x00, 0x00, 0x00, 0x16, 0x00, 0x00, 0x00, 0x0b, 0x00, 0x00, 0x00, 
    0x0a, 0x00, 0x00, 0x00, 0xde, 0xfe, 0xff, 0xff, 0x10, 0x00, 0x00, 0x00, 0x00, 0x00, 0x00, 0x02, 
    0x18, 0x00, 0x00, 0x00, 0x1c, 0x00, 0x00, 0x00, 0xd0, 0xfe, 0xff, 0xff, 0x01, 0x00, 0x00, 0x00, 
    0x01, 0x00, 0x00, 0x00, 0x01, 0x00, 0x00, 0x00, 0x01, 0x00, 0x00, 0x00, 0x16, 0x00, 0x00, 0x00, 
    0x03, 0x00, 0x00, 0x00, 0x15, 0x00, 0x00, 0x00, 0x0d, 0x00, 0x00, 0x00, 0x0c, 0x00, 0x00, 0x00, 
    0x76, 0xff, 0xff, 0xff, 0x24, 0x00, 0x00, 0x00, 0x00, 0x00, 0x00, 0x05, 0x34, 0x00, 0x00, 0x00, 
    0x38, 0x00, 0x00, 0x00, 0x03, 0x00, 0x00, 0x00, 0x00, 0x00, 0x0e, 0x00, 0x18, 0x00, 0x17, 0x00, 
    0x10, 0x00, 0x0c, 0x00, 0x08, 0x00, 0x04, 0x00, 0x0e, 0x00, 0x00, 0x00, 0x02, 0x00, 0x00, 0x00, 
    0x02, 0x00, 0x00, 0x00, 0x02, 0x00, 0x00, 0x00, 0x02, 0x00, 0x00, 0x00, 0x00, 0x00, 0x00, 0x01, 
    0x01, 0x00, 0x00, 0x00, 0x15, 0x00, 0x00, 0x00, 0x01, 0x00, 0x00, 0x00, 0x14, 0x00, 0x00, 0x00, 
    0xc6, 0xff, 0xff, 0xff, 0x1c, 0x00, 0x00, 0x00, 0x00, 0x00, 0x00, 0x4b, 0x1c, 0x00, 0x00, 0x00, 
    0x20, 0x00, 0x00, 0x00, 0x02, 0x00, 0x00, 0x00, 0x00, 0x00, 0x06, 0x00, 0x08, 0x00, 0x04, 0x00, 
    0x06, 0x00, 0x00, 0x00, 0xcd, 0xcc, 0xcc, 0x3d, 0x01, 0x00, 0x00, 0x00, 0x14, 0x00, 0x00, 0x00, 
    0x01, 0x00, 0x00, 0x00, 0x13, 0x00, 0x00, 0x00, 0x00, 0x00, 0x0e, 0x00, 0x1a, 0x00, 0x14, 0x00, 
    0x10, 0x00, 0x0c, 0x00, 0x0b, 0x00, 0x04, 0x00, 0x0e, 0x00, 0x00, 0x00, 0x20, 0x00, 0x00, 0x00, 
    0x00, 0x00, 0x00, 0x01, 0x28, 0x00, 0x00, 0x00, 0x2c, 0x00, 0x00, 0x00, 0x01, 0x00, 0x00, 0x00, 
    0x00, 0x00, 0x0a, 0x00, 0x10, 0x00, 0x0f, 0x00, 0x08, 0x00, 0x04, 0x00, 0x0a, 0x00, 0x00, 0x00, 
    0x01, 0x00, 0x00, 0x00, 0x01, 0x00, 0x00, 0x00, 0x00, 0x00, 0x00, 0x01, 0x01, 0x00, 0x00, 0x00, 
    0x13, 0x00, 0x00, 0x00, 0x03, 0x00, 0x00, 0x00, 0x12, 0x00, 0x00, 0x00, 0x0f, 0x00, 0x00, 0x00, 
    0x0e, 0x00, 0x00, 0x00, 0x00, 0x00, 0x0e, 0x00, 0x14, 0x00, 0x00, 0x00, 0x10, 0x00, 0x0c, 0x00, 
    0x0b, 0x00, 0x04, 0x00, 0x0e, 0x00, 0x00, 0x00, 0x1c, 0x00, 0x00, 0x00, 0x00, 0x00, 0x00, 0x02, 
    0x24, 0x00, 0x00, 0x00, 0x28, 0x00, 0x00, 0x00, 0x0c, 0x00, 0x10, 0x00, 0x00, 0x00, 0x0c, 0x00, 
    0x08, 0x00, 0x04, 0x00, 0x0c, 0x00, 0x00, 0x00, 0x01, 0x00, 0x00, 0x00, 0x01, 0x00, 0x00, 0x00, 
    0x01, 0x00, 0x00, 0x00, 0x01, 0x00, 0x00, 0x00, 0x12, 0x00, 0x00, 0x00, 0x03, 0x00, 0x00, 0x00, 
    0x00, 0x00, 0x00, 0x00, 0x11, 0x00, 0x00, 0x00, 0x10, 0x00, 0x00, 0x00, 0x01, 0x00, 0x00, 0x00, 
    0x20, 0x00, 0x00, 0x00, 0x01, 0x00, 0x00, 0x00, 0x00, 0x00, 0x00, 0x00, 0x21, 0x00, 0x00, 0x00, 
    0x98, 0x19, 0x00, 0x00, 0x14, 0x19, 0x00, 0x00, 0x84, 0x18, 0x00, 0x00, 0x18, 0x18, 0x00, 0x00, 
    0xa4, 0x17, 0x00, 0x00, 0x40, 0x17, 0x00, 0x00, 0x4c, 0x15, 0x00, 0x00, 0x50, 0x13, 0x00, 0x00, 
    0x1c, 0x12, 0x00, 0x00, 0xc0, 0x10, 0x00, 0x00, 0x8c, 0x0f, 0x00, 0x00, 0x50, 0x0e, 0x00, 0x00, 
    0x7c, 0x0d, 0x00, 0x00, 0x94, 0x0c, 0x00, 0x00, 0xc4, 0x0b, 0x00, 0x00, 0xf0, 0x0a, 0x00, 0x00, 
    0x64, 0x0a, 0x00, 0x00, 0xc4, 0x09, 0x00, 0x00, 0x1c, 0x09, 0x00, 0x00, 0x20, 0x08, 0x00, 0x00, 
    0x94, 0x07, 0x00, 0x00, 0x08, 0x07, 0x00, 0x00, 0x5c, 0x06, 0x00, 0x00, 0x60, 0x05, 0x00, 0x00, 
    0xcc, 0x04, 0x00, 0x00, 0x38, 0x04, 0x00, 0x00, 0x8c, 0x03, 0x00, 0x00, 0xc0, 0x02, 0x00, 0x00, 
    0x2c, 0x02, 0x00, 0x00, 0xa8, 0x01, 0x00, 0x00, 0x0c, 0x01, 0x00, 0x00, 0x80, 0x00, 0x00, 0x00, 
    0x04, 0x00, 0x00, 0x00, 0x02, 0xe7, 0xff, 0xff, 0x00, 0x00, 0x00, 0x01, 0x18, 0x00, 0x00, 0x00, 
    0x20, 0x00, 0x00, 0x00, 0x3c, 0x00, 0x00, 0x00, 0x21, 0x00, 0x00, 0x00, 0x00, 0x00, 0x00, 0x09, 
    0x50, 0x00, 0x00, 0x00, 0x02, 0x00, 0x00, 0x00, 0xff, 0xff, 0xff, 0xff, 0x0a, 0x00, 0x00, 0x00, 
    0xe4, 0xe6, 0xff, 0xff, 0x08, 0x00, 0x00, 0x00, 0x10, 0x00, 0x00, 0x00, 0x01, 0x00, 0x00, 0x00, 
    0x80, 0xff, 0xff, 0xff, 0xff, 0xff, 0xff, 0xff, 0x01, 0x00, 0x00, 0x00, 0x00, 0x00, 0x80, 0x3b, 
    0x19, 0x00, 0x00, 0x00, 0x53, 0x74, 0x61, 0x74, 0x65, 0x66, 0x75, 0x6c, 0x50, 0x61, 0x72, 0x74, 
    0x69, 0x74, 0x69, 0x6f, 0x6e, 0x65, 0x64, 0x43, 0x61, 0x6c, 0x6c, 0x3a, 0x30, 0x00, 0x00, 0x00, 
    0x02, 0x00, 0x00, 0x00, 0x01, 0x00, 0x00, 0x00, 0x0a, 0x00, 0x00, 0x00, 0x7a, 0xe7, 0xff, 0xff, 
    0x00, 0x00, 0x00, 0x01, 0x18, 0x00, 0x00, 0x00, 0x20, 0x00, 0x00, 0x00, 0x3c, 0x00, 0x00, 0x00, 
    0x20, 0x00, 0x00, 0x00, 0x00, 0x00, 0x00, 0x09, 0x60, 0x00, 0x00, 0x00, 0x02, 0x00, 0x00, 0x00, 
    0xff, 0xff, 0xff, 0xff, 0x0a, 0x00, 0x00, 0x00, 0x5c, 0xe7, 0xff, 0xff, 0x08, 0x00, 0x00, 0x00, 
    0x10, 0x00, 0x00, 0x00, 0x01, 0x00, 0x00, 0x00, 0x41, 0x00, 0x00, 0x00, 0x00, 0x00, 0x00, 0x00, 
    0x01, 0x00, 0x00, 0x00, 0x44, 0xa6, 0x59, 0x3e, 0x2a, 0x00, 0x00, 0x00, 0x6d, 0x6f, 0x64, 0x65, 
    0x6c, 0x2f, 0x64, 0x65, 0x6e, 0x73, 0x65, 0x5f, 0x31, 0x2f, 0x4d, 0x61, 0x74, 0x4d, 0x75, 0x6c, 
    0x3b, 0x6d, 0x6f, 0x64, 0x65, 0x6c, 0x2f, 0x64, 0x65, 0x6e, 0x73, 0x65, 0x5f, 0x31, 0x2f, 0x42, 
    0x69, 0x61, 0x73, 0x41, 0x64, 0x64, 0x00, 0x00, 0x02, 0x00, 0x00, 0x00, 0x01, 0x00, 0x00, 0x00, 
    0x0a, 0x00, 0x00, 0x00, 0x02, 0xe8, 0xff, 0xff, 0x00, 0x00, 0x00, 0x01, 0x18, 0x00, 0x00, 0x00, 
    0x20, 0x00, 0x00, 0x00, 0x40, 0x00, 0x00, 0x00, 0x1f, 0x00, 0x00, 0x00, 0x00, 0x00, 0x00, 0x09, 
    0x70, 0x00, 0x00, 0x00, 0x02, 0x00, 0x00, 0x00, 0xff, 0xff, 0xff, 0xff, 0x20, 0x00, 0x00, 0x00, 
    0xe4, 0xe7, 0xff, 0xff, 0x08, 0x00, 0x00, 0x00, 0x14, 0x00, 0x00, 0x00, 0x01, 0x00, 0x00, 0x00, 
    0x80, 0xff, 0xff, 0xff, 0xff, 0xff, 0xff, 0xff, 0x00, 0x00, 0x00, 0x00, 0x01, 0x00, 0x00, 0x00, 
    0x37, 0xa1, 0x78, 0x3c, 0x37, 0x00, 0x00, 0x00, 0x6d, 0x6f, 0x64, 0x65, 0x6c, 0x2f, 0x64, 0x65, 
    0x6e, 0x73, 0x65, 0x2f, 0x4d, 0x61, 0x74, 0x4d, 0x75, 0x6c, 0x3b, 0x6d, 0x6f, 0x64, 0x65, 0x6c, 
    0x2f, 0x64, 0x65, 0x6e, 0x73, 0x65, 0x2f, 0x52, 0x65, 0x6c, 0x75, 0x3b, 0x6d, 0x6f, 0x64, 0x65, 
    0x6c, 0x2f, 0x64, 0x65, 0x6e, 0x73, 0x65, 0x2f, 0x42, 0x69, 0x61, 0x73, 0x41, 0x64, 0x64, 0x00, 
    0x02, 0x00, 0x00, 0x00, 0x01, 0x00, 0x00, 0x00, 0x20, 0x00, 0x00, 0x00, 0x9a, 0xe8, 0xff, 0xff, 
    0x00, 0x00, 0x00, 0x01, 0x18, 0x00, 0x00, 0x00, 0x20, 0x00, 0x00, 0x00, 0x3c, 0x00, 0x00, 0x00, 
    0x1e, 0x00, 0x00, 0x00, 0x00, 0x00, 0x00, 0x09, 0x58, 0x00, 0x00, 0x00, 0x02, 0x00, 0x00, 0x00, 
    0xff, 0xff, 0xff, 0xff, 0x20, 0x00, 0x00, 0x00, 0x7c, 0xe8, 0xff, 0xff, 0x08, 0x00, 0x00, 0x00, 
    0x10, 0x00, 0x00, 0x00, 0x01, 0x00, 0x00, 0x00, 0xa0, 0xff, 0xff, 0xff, 0xff, 0xff, 0xff, 0xff, 
    0x01, 0x00, 0x00, 0x00, 0x44, 0x36, 0xf2, 0x3b, 0x23, 0x00, 0x00, 0x00, 0x6d, 0x6f, 0x64, 0x65, 
    0x6c, 0x2f, 0x67, 0x6c, 0x6f, 0x62, 0x61, 0x6c, 0x5f, 0x61, 0x76, 0x65, 0x72, 0x61, 0x67, 0x65, 
    0x5f, 0x70, 0x6f, 0x6f, 0x6c, 0x69, 0x6e, 0x67, 0x32, 0x64, 0x2f, 0x4d, 0x65, 0x61, 0x6e, 0x00, 
    0x02, 0x00, 0x00, 0x00, 0x01, 0x00, 0x00, 0x00, 0x20, 0x00, 0x00, 0x00, 0x1a, 0xe9, 0xff, 0xff, 
    0x00, 0x00, 0x00, 0x01, 0x18, 0x00, 0x00, 0x00, 0x28, 0x00, 0x00, 0x00, 0x48, 0x00, 0x00, 0x00, 
    0x1d, 0x00, 0x00, 0x00, 0x00, 0x00, 0x00, 0x09, 0x60, 0x00, 0x00, 0x00, 0x04, 0x00, 0x00, 0x00, 
    0xff, 0xff, 0xff, 0xff, 0x14, 0x00, 0x00, 0x00, 0x14, 0x00, 0x00, 0x00, 0x20, 0x00, 0x00, 0x00, 
    0x04, 0xe9, 0xff, 0xff, 0x08, 0x00, 0x00, 0x00, 0x14, 0x00, 0x00, 0x00, 0x01, 0x00, 0x00, 0x00, 
    0x99, 0xff, 0xff, 0xff, 0xff, 0xff, 0xff, 0xff, 0x00, 0x00, 0x00, 0x00, 0x01, 0x00, 0x00, 0x00, 
    0xb9, 0x3f, 0x97, 0x3d, 0x1d, 0x00, 0x00, 0x00, 0x6d, 0x6f, 0x64, 0x65, 0x6c, 0x2f, 0x6c, 0x65, 
    0x61, 0x6b, 0x79, 0x5f, 0x72, 0x65, 0x5f, 0x6c, 0x75, 0x5f, 0x32, 0x2f, 0x4c, 0x65, 0x61, 0x6b, 
    0x79, 0x52, 0x65, 0x6c, 0x75, 0x00, 0x00, 0x00, 0x04, 0x00, 0x00, 0x00, 0x01, 0x00, 0x00, 0x00, 
    0x14, 0x00, 0x00, 0x00, 0x14, 0x00, 0x00, 0x00, 0x20, 0x00, 0x00, 0x00, 0xaa, 0xe9, 0xff, 0xff, 
    0x00, 0x00, 0x00, 0x01, 0x18, 0x00, 0x00, 0x00, 0x28, 0x00, 0x00, 0x00, 0x48, 0x00, 0x00, 0x00, 
    0x1c, 0x00, 0x00, 0x00, 0x00, 0x00, 0x00, 0x09, 0x98, 0x00, 0x00, 0x00, 0x04, 0x00, 0x00, 0x00, 
    0xff, 0xff, 0xff, 0xff, 0x14, 0x00, 0x00, 0x00, 0x14, 0x00, 0x00, 0x00, 0x20, 0x00, 0x00, 0x00, 
    0x94, 0xe9, 0xff, 0xff, 0x08, 0x00, 0x00, 0x00, 0x14, 0x00, 0x00, 0x00, 0x01, 0x00, 0x00, 0x00, 
    0x03, 0x00, 0x00, 0x00, 0x00, 0x00, 0x00, 0x00, 0x00, 0x00, 0x00, 0x00, 0x01, 0x00, 0x00, 0x00, 
    0x03, 0x0e, 0x0d, 0x3e, 0x56, 0x00, 0x00, 0x00, 0x6d, 0x6f, 0x64, 0x65, 0x6c, 0x2f, 0x62, 0x61, 
    0x74, 0x63, 0x68, 0x5f, 0x6e, 0x6f, 0x72, 0x6d, 0x61, 0x6c, 0x69, 0x7a, 0x61, 0x74, 0x69, 0x6f, 
    0x6e, 0x5f, 0x32, 0x2f, 0x46, 0x75, 0x73, 0x65, 0x64, 0x42, 0x61, 0x74, 0x63, 0x68, 0x4e, 0x6f, 
    0x72, 0x6d, 0x56, 0x33, 0x3b, 0x6d, 0x6f, 0x64, 0x65, 0x6c, 0x2f, 0x73, 0x65, 0x70, 0x61, 0x72, 
    0x61, 0x62, 0x6c, 0x65, 0x5f, 0x63, 0x6f, 0x6e, 0x76, 0x32, 0x64, 0x5f, 0x32, 0x2f, 0x73, 0x65, 
    0x70, 0x61, 0x72, 0x61, 0x62, 0x6c, 0x65, 0x5f, 0x63, 0x6f, 0x6e, 0x76, 0x32, 0x64, 0x00, 0x00, 
    0x04, 0x00, 0x00, 0x00, 0x01, 0x00, 0x00, 0x00, 0x14, 0x00, 0x00, 0x00, 0x14, 0x00, 0x00, 0x00, 
    0x20, 0x00, 0x00, 0x00, 0x72, 0xea, 0xff, 0xff, 0x00, 0x00, 0x00, 0x01, 0x18, 0x00, 0x00, 0x00, 
    0x28, 0x00, 0x00, 0x00, 0x48, 0x00, 0x00, 0x00, 0x1b, 0x00, 0x00, 0x00, 0x00, 0x00, 0x00, 0x09, 
    0x78, 0x00, 0x00, 0x00, 0x04, 0x00, 0x00, 0x00, 0xff, 0xff, 0xff, 0xff, 0x14, 0x00, 0x00, 0x00, 
    0x14, 0x00, 0x00, 0x00, 0x10, 0x00, 0x00, 0x00, 0x5c, 0xea, 0xff, 0xff, 0x08, 0x00, 0x00, 0x00, 
    0x14, 0x00, 0x00, 0x00, 0x01, 0x00, 0x00, 0x00, 0xfb, 0xff, 0xff, 0xff, 0xff, 0xff, 0xff, 0xff, 
    0x00, 0x00, 0x00, 0x00, 0x01, 0x00, 0x00, 0x00, 0x15, 0xfd, 0x2b, 0x3d, 0x34, 0x00, 0x00, 0x00, 
    0x6d, 0x6f, 0x64, 0x65, 0x6c, 0x2f, 0x73, 0x65, 0x70, 0x61, 0x72, 0x61, 0x62, 0x6c, 0x65, 0x5f, 
    0x63, 0x6f, 0x6e, 0x76, 0x32, 0x64, 0x5f, 0x32, 0x2f, 0x73, 0x65, 0x70, 0x61, 0x72, 0x61, 0x62, 
    0x6c, 0x65, 0x5f, 0x63, 0x6f, 0x6e, 0x76, 0x32, 0x64, 0x2f, 0x64, 0x65, 0x70, 0x74, 0x68, 0x77, 
    0x69, 0x73, 0x65, 0x32, 0x00, 0x00, 0x00, 0x00, 0x04, 0x00, 0x00, 0x00, 0x01, 0x00, 0x00, 0x00, 
    0x14, 0x00, 0x00, 0x00, 0x14, 0x00, 0x00, 0x00, 0x10, 0x00, 0x00, 0x00, 0x1a, 0xeb, 0xff, 0xff, 
    0x00, 0x00, 0x00, 0x01, 0x18, 0x00, 0x00, 0x00, 0x28, 0x00, 0x00, 0x00, 0x48, 0x00, 0x00, 0x00, 
    0x1a, 0x00, 0x00, 0x00, 0x00, 0x00, 0x00, 0x09, 0x60, 0x00, 0x00, 0x00, 0x04, 0x00, 0x00, 0x00, 
    0xff, 0xff, 0xff, 0xff, 0x14, 0x00, 0x00, 0x00, 0x14, 0x00, 0x00, 0x00, 0x10, 0x00, 0x00, 0x00, 
    0x04, 0xeb, 0xff, 0xff, 0x08, 0x00, 0x00, 0x00, 0x14, 0x00, 0x00, 0x00, 0x01, 0x00, 0x00, 0x00, 
    0x98, 0xff, 0xff, 0xff, 0xff, 0xff, 0xff, 0xff, 0x00, 0x00, 0x00, 0x00, 0x01, 0x00, 0x00, 0x00, 
    0xcb, 0xb1, 0x32, 0x3d, 0x1d, 0x00, 0x00, 0x00, 0x6d, 0x6f, 0x64, 0x65, 0x6c, 0x2f, 0x6d, 0x61, 
    0x78, 0x5f, 0x70, 0x6f, 0x6f, 0x6c, 0x69, 0x6e, 0x67, 0x32, 0x64, 0x5f, 0x31, 0x2f, 0x4d, 0x61, 
    0x78, 0x50, 0x6f, 0x6f, 0x6c, 0x00, 0x00, 0x00, 0x04, 0x00, 0x00, 0x00, 0x01, 0x00, 0x00, 0x00, 
    0x14, 0x00, 0x00, 0x00, 0x14, 0x00, 0x00, 0x00, 0x10, 0x00, 0x00, 0x00, 0xaa, 0xeb, 0xff, 0xff, 
    0x00, 0x00, 0x00, 0x01, 0x18, 0x00, 0x00, 0x00, 0x28, 0x00, 0x00, 0x00, 0x48, 0x00, 0x00, 0x00, 
    0x19, 0x00, 0x00, 0x00, 0x00, 0x00, 0x00, 0x09, 0x60, 0x00, 0x00, 0x00, 0x04, 0x00, 0x00, 0x00, 
    0xff, 0xff, 0xff, 0xff, 0x28, 0x00, 0x00, 0x00, 0x28, 0x00, 0x00, 0x00, 0x10, 0x00, 0x00, 0x00, 
    0x94, 0xeb, 0xff, 0xff, 0x08, 0x00, 0x00, 0x00, 0x14, 0x00, 0x00, 0x00, 0x01, 0x00, 0x00, 0x00, 
    0x98, 0xff, 0xff, 0xff, 0xff, 0xff, 0xff, 0xff, 0x00, 0x00, 0x00, 0x00, 0x01, 0x00, 0x00, 0x00, 
    0xcb, 0xb1, 0x32, 0x3d, 0x1d, 0x00, 0x00, 0x00, 0x6d, 0x6f, 0x64, 0x65, 0x6c, 0x2f, 0x6c, 0x65, 
    0x61, 0x6b, 0x79, 0x5f, 0x72, 0x65, 0x5f, 0x6c, 0x75, 0x5f, 0x31, 0x2f, 0x4c, 0x65, 0x61, 0x6b, 
    0x79, 0x52, 0x65, 0x6c, 0x75, 0x00, 0x00, 0x00, 0x04, 0x00, 0x00, 0x00, 0x01, 0x00, 0x00, 0x00, 
    0x28, 0x00, 0x00, 0x00, 0x28, 0x00, 0x00, 0x00, 0x10, 0x00, 0x00, 0x00, 0x3a, 0xec, 0xff, 0xff, 
    0x00, 0x00, 0x00, 0x01, 0x18, 0x00, 0x00, 0x00, 0x28, 0x00, 0x00, 0x00, 0x44, 0x00, 0x00, 0x00, 
    0x18, 0x00, 0x00, 0x00, 0x00, 0x00, 0x00, 0x09, 0xc8, 0x00, 0x00, 0x00, 0x04, 0x00, 0x00, 0x00, 
    0xff, 0xff, 0xff, 0xff, 0x28, 0x00, 0x00, 0x00, 0x28, 0x00, 0x00, 0x00, 0x10, 0x00, 0x00, 0x00, 
    0x24, 0xec, 0xff, 0xff, 0x08, 0x00, 0x00, 0x00, 0x10, 0x00, 0x00, 0x00, 0x01, 0x00, 0x00, 0x00, 
    0x01, 0x00, 0x00, 0x00, 0x00, 0x00, 0x00, 0x00, 0x01, 0x00, 0x00, 0x00, 0xb2, 0xf5, 0xa3, 0x3d, 
    0x8a, 0x00, 0x00, 0x00, 0x6d, 0x6f, 0x64, 0x65, 0x6c, 0x2f, 0x62, 0x61, 0x74, 0x63, 0x68, 0x5f, 
    0x6e, 0x6f, 0x72, 0x6d, 0x61, 0x6c, 0x69, 0x7a, 0x61, 0x74, 0x69, 0x6f, 0x6e, 0x5f, 0x31, 0x2f, 
    0x46, 0x75, 0x73, 0x65, 0x64, 0x42, 0x61, 0x74, 0x63, 0x68, 0x4e, 0x6f, 0x72, 0x6d, 0x56, 0x33, 
    0x3b, 0x6d, 0x6f, 0x64, 0x65, 0x6c, 0x2f, 0x73, 0x65, 0x70, 0x61, 0x72, 0x61, 0x62, 0x6c, 0x65, 
    0x5f, 0x63, 0x6f, 0x6e, 0x76, 0x32, 0x64, 0x5f, 0x32, 0x2f, 0x73, 0x65, 0x70, 0x61, 0x72, 0x61, 
    0x62, 0x6c, 0x65, 0x5f, 0x63, 0x6f, 0x6e, 0x76, 0x32, 0x64, 0x2f, 0x64, 0x65, 0x70, 0x74, 0x68, 
    0x77, 0x69, 0x73, 0x65, 0x3b, 0x6d, 0x6f, 0x64, 0x65, 0x6c, 0x2f, 0x73, 0x65, 0x70, 0x61, 0x72, 
    0x61, 0x62, 0x6c, 0x65, 0x5f, 0x63, 0x6f, 0x6e, 0x76, 0x32, 0x64, 0x5f, 0x31, 0x2f, 0x73, 0x65, 
    0x70, 0x61, 0x72, 0x61, 0x62, 0x6c, 0x65, 0x5f, 0x63, 0x6f, 0x6e, 0x76, 0x32, 0x64, 0x00, 0x00, 
    0x04, 0x00, 0x00, 0x00, 0x01, 0x00, 0x00, 0x00, 0x28, 0x00, 0x00, 0x00, 0x28, 0x00, 0x00, 0x00, 
    0x10, 0x00, 0x00, 0x00, 0x32, 0xed, 0xff, 0xff, 0x00, 0x00, 0x00, 0x01, 0x18, 0x00, 0x00, 0x00, 
    0x28, 0x00, 0x00, 0x00, 0x48, 0x00, 0x00, 0x00, 0x17, 0x00, 0x00, 0x00, 0x00, 0x00, 0x00, 0x09, 
    0x78, 0x00, 0x00, 0x00, 0x04, 0x00, 0x00, 0x00, 0xff, 0xff, 0xff, 0xff, 0x28, 0x00, 0x00, 0x00, 
    0x28, 0x00, 0x00, 0x00, 0x08, 0x00, 0x00, 0x00, 0x1c, 0xed, 0xff, 0xff, 0x08, 0x00, 0x00, 0x00, 
    0x14, 0x00, 0x00, 0x00, 0x01, 0x00, 0x00, 0x00, 0xf5, 0xff, 0xff, 0xff, 0xff, 0xff, 0xff, 0xff, 
    0x00, 0x00, 0x00, 0x00, 0x01, 0x00, 0x00, 0x00, 0x1c, 0x5f, 0x32, 0x3d, 0x34, 0x00, 0x00, 0x00, 
    0x6d, 0x6f, 0x64, 0x65, 0x6c, 0x2f, 0x73, 0x65, 0x70, 0x61, 0x72, 0x61, 0x62, 0x6c, 0x65, 0x5f, 
    0x63, 0x6f, 0x6e, 0x76, 0x32, 0x64, 0x5f, 0x31, 0x2f, 0x73, 0x65, 0x70, 0x61, 0x72, 0x61, 0x62, 
    0x6c, 0x65, 0x5f, 0x63, 0x6f, 0x6e, 0x76, 0x32, 0x64, 0x2f, 0x64, 0x65, 0x70, 0x74, 0x68, 0x77, 
    0x69, 0x73, 0x65, 0x32, 0x00, 0x00, 0x00, 0x00, 0x04, 0x00, 0x00, 0x00, 0x01, 0x00, 0x00, 0x00, 
    0x28, 0x00, 0x00, 0x00, 0x28, 0x00, 0x00, 0x00, 0x08, 0x00, 0x00, 0x00, 0xda, 0xed, 0xff, 0xff, 
    0x00, 0x00, 0x00, 0x01, 0x18, 0x00, 0x00, 0x00, 0x28, 0x00, 0x00, 0x00, 0x44, 0x00, 0x00, 0x00, 
    0x16, 0x00, 0x00, 0x00, 0x00, 0x00, 0x00, 0x09, 0x58, 0x00, 0x00, 0x00, 0x04, 0x00, 0x00, 0x00, 
    0xff, 0xff, 0xff, 0xff, 0x28, 0x00, 0x00, 0x00, 0x28, 0x00, 0x00, 0x00, 0x08, 0x00, 0x00, 0x00, 
    0xc4, 0xed, 0xff, 0xff, 0x08, 0x00, 0x00, 0x00, 0x10, 0x00, 0x00, 0x00, 0x01, 0x00, 0x00, 0x00, 
    0x99, 0xff, 0xff, 0xff, 0xff, 0xff, 0xff, 0xff, 0x01, 0x00, 0x00, 0x00, 0x48, 0xfb, 0x09, 0x3d, 
    0x1b, 0x00, 0x00, 0x00, 0x6d, 0x6f, 0x64, 0x65, 0x6c, 0x2f, 0x6d, 0x61, 0x78, 0x5f, 0x70, 0x6f, 
    0x6f, 0x6c, 0x69, 0x6e, 0x67, 0x32, 0x64, 0x2f, 0x4d, 0x61, 0x78, 0x50, 0x6f, 0x6f, 0x6c, 0x00, 
    0x04, 0x00, 0x00, 0x00, 0x01, 0x00, 0x00, 0x00, 0x28, 0x00, 0x00, 0x00, 0x28, 0x00, 0x00, 0x00, 
    0x08, 0x00, 0x00, 0x00, 0x62, 0xee, 0xff, 0xff, 0x00, 0x00, 0x00, 0x01, 0x18, 0x00, 0x00, 0x00, 
    0x28, 0x00, 0x00, 0x00, 0x44, 0x00, 0x00, 0x00, 0x15, 0x00, 0x00, 0x00, 0x00, 0x00, 0x00, 0x09, 
    0x58, 0x00, 0x00, 0x00, 0x04, 0x00, 0x00, 0x00, 0xff, 0xff, 0xff, 0xff, 0x50, 0x00, 0x00, 0x00, 
    0x50, 0x00, 0x00, 0x00, 0x08, 0x00, 0x00, 0x00, 0x4c, 0xee, 0xff, 0xff, 0x08, 0x00, 0x00, 0x00, 
    0x10, 0x00, 0x00, 0x00, 0x01, 0x00, 0x00, 0x00, 0x99, 0xff, 0xff, 0xff, 0xff, 0xff, 0xff, 0xff, 
    0x01, 0x00, 0x00, 0x00, 0x48, 0xfb, 0x09, 0x3d, 0x1b, 0x00, 0x00, 0x00, 0x6d, 0x6f, 0x64, 0x65, 
    0x6c, 0x2f, 0x6c, 0x65, 0x61, 0x6b, 0x79, 0x5f, 0x72, 0x65, 0x5f, 0x6c, 0x75, 0x2f, 0x4c, 0x65, 
    0x61, 0x6b, 0x79, 0x52, 0x65, 0x6c, 0x75, 0x00, 0x04, 0x00, 0x00, 0x00, 0x01, 0x00, 0x00, 0x00, 
    0x50, 0x00, 0x00, 0x00, 0x50, 0x00, 0x00, 0x00, 0x08, 0x00, 0x00, 0x00, 0xea, 0xee, 0xff, 0xff, 
    0x00, 0x00, 0x00, 0x01, 0x18, 0x00, 0x00, 0x00, 0x28, 0x00, 0x00, 0x00, 0x48, 0x00, 0x00, 0x00, 
    0x14, 0x00, 0x00, 0x00, 0x00, 0x00, 0x00, 0x09, 0xc8, 0x00, 0x00, 0x00, 0x04, 0x00, 0x00, 0x00, 
    0xff, 0xff, 0xff, 0xff, 0x50, 0x00, 0x00, 0x00, 0x50, 0x00, 0x00, 0x00, 0x08, 0x00, 0x00, 0x00, 
    0xd4, 0xee, 0xff, 0xff, 0x08, 0x00, 0x00, 0x00, 0x14, 0x00, 0x00, 0x00, 0x01, 0x00, 0x00, 0x00, 
    0x06, 0x00, 0x00, 0x00, 0x00, 0x00, 0x00, 0x00, 0x00, 0x00, 0x00, 0x00, 0x01, 0x00, 0x00, 0x00, 
    0x58, 0xa3, 0x82, 0x3d, 0x86, 0x00, 0x00, 0x00, 0x6d, 0x6f, 0x64, 0x65, 0x6c, 0x2f, 0x62, 0x61, 
    0x74, 0x63, 0x68, 0x5f, 0x6e, 0x6f, 0x72, 0x6d, 0x61, 0x6c, 0x69, 0x7a, 0x61, 0x74, 0x69, 0x6f, 
    0x6e, 0x2f, 0x46, 0x75, 0x73, 0x65, 0x64, 0x42, 0x61, 0x74, 0x63, 0x68, 0x4e, 0x6f, 0x72, 0x6d, 
    0x56, 0x33, 0x3b, 0x6d, 0x6f, 0x64, 0x65, 0x6c, 0x2f, 0x73, 0x65, 0x70, 0x61, 0x72, 0x61, 0x62, 
    0x6c, 0x65, 0x5f, 0x63, 0x6f, 0x6e, 0x76, 0x32, 0x64, 0x5f, 0x31, 0x2f, 0x73, 0x65, 0x70, 0x61, 
    0x72, 0x61, 0x62, 0x6c, 0x65, 0x5f, 0x63, 0x6f, 0x6e, 0x76, 0x32, 0x64, 0x2f, 0x64, 0x65, 0x70, 
    0x74, 0x68, 0x77, 0x69, 0x73, 0x65, 0x3b, 0x6d, 0x6f, 0x64, 0x65, 0x6c, 0x2f, 0x73, 0x65, 0x70, 
    0x61, 0x72, 0x61, 0x62, 0x6c, 0x65, 0x5f, 0x63, 0x6f, 0x6e, 0x76, 0x32, 0x64, 0x2f, 0x73, 0x65, 
    0x70, 0x61, 0x72, 0x61, 0x62, 0x6c, 0x65, 0x5f, 0x63, 0x6f, 0x6e, 0x76, 0x32, 0x64, 0x00, 0x00, 
    0x04, 0x00, 0x00, 0x00, 0x01, 0x00, 0x00, 0x00, 0x50, 0x00, 0x00, 0x00, 0x50, 0x00, 0x00, 0x00, 
    0x08, 0x00, 0x00, 0x00, 0xe2, 0xef, 0xff, 0xff, 0x00, 0x00, 0x00, 0x01, 0x18, 0x00, 0x00, 0x00, 
    0x28, 0x00, 0x00, 0x00, 0x48, 0x00, 0x00, 0x00, 0x13, 0x00, 0x00, 0x00, 0x00, 0x00, 0x00, 0x09, 
    0x74, 0x00, 0x00, 0x00, 0x04, 0x00, 0x00, 0x00, 0xff, 0xff, 0xff, 0xff, 0x50, 0x00, 0x00, 0x00, 
    0x50, 0x00, 0x00, 0x00, 0x02, 0x00, 0x00, 0x00, 0xcc, 0xef, 0xff, 0xff, 0x08, 0x00, 0x00, 0x00, 
    0x14, 0x00, 0x00, 0x00, 0x01, 0x00, 0x00, 0x00, 0x02, 0x00, 0x00, 0x00, 0x00, 0x00, 0x00, 0x00, 
    0x00, 0x00, 0x00, 0x00, 0x01, 0x00, 0x00, 0x00, 0x30, 0x48, 0x06, 0x3c, 0x32, 0x00, 0x00, 0x00, 
    0x6d, 0x6f, 0x64, 0x65, 0x6c, 0x2f, 0x73, 0x65, 0x70, 0x61, 0x72, 0x61, 0x62, 0x6c, 0x65, 0x5f, 
    0x63, 0x6f, 0x6e, 0x76, 0x32, 0x64, 0x2f, 0x73, 0x65, 0x70, 0x61, 0x72, 0x61, 0x62, 0x6c, 0x65, 
    0x5f, 0x63, 0x6f, 0x6e, 0x76, 0x32, 0x64, 0x2f, 0x64, 0x65, 0x70, 0x74, 0x68, 0x77, 0x69, 0x73, 
    0x65, 0x32, 0x00, 0x00, 0x04, 0x00, 0x00, 0x00, 0x01, 0x00, 0x00, 0x00, 0x50, 0x00, 0x00, 0x00, 
    0x50, 0x00, 0x00, 0x00, 0x02, 0x00, 0x00, 0x00, 0x06, 0xf1, 0xff, 0xff, 0x00, 0x00, 0x00, 0x01, 
    0x14, 0x00, 0x00, 0x00, 0x44, 0x00, 0x00, 0x00, 0x12, 0x00, 0x00, 0x00, 0x00, 0x00, 0x00, 0x09, 
    0x70, 0x00, 0x00, 0x00, 0x22, 0xf9, 0xff, 0xff, 0x03, 0x00, 0x00, 0x00, 0x08, 0x00, 0x00, 0x00, 
    0x1c, 0x00, 0x00, 0x00, 0x02, 0x00, 0x00, 0x00, 0x00, 0x00, 0x00, 0x00, 0x00, 0x00, 0x00, 0x00, 
    0x00, 0x00, 0x00, 0x00, 0x00, 0x00, 0x00, 0x00, 0x00, 0x00, 0x00, 0x00, 0x02, 0x00, 0x00, 0x00, 
    0xd5, 0x58, 0x7a, 0x3b, 0x29, 0xa0, 0x7b, 0x3b, 0x32, 0x00, 0x00, 0x00, 0x6d, 0x6f, 0x64, 0x65, 
    0x6c, 0x2f, 0x73, 0x65, 0x70, 0x61, 0x72, 0x61, 0x62, 0x6c, 0x65, 0x5f, 0x63, 0x6f, 0x6e, 0x76, 
    0x32, 0x64, 0x2f, 0x73, 0x65, 0x70, 0x61, 0x72, 0x61, 0x62, 0x6c, 0x65, 0x5f, 0x63, 0x6f, 0x6e, 
    0x76, 0x32, 0x64, 0x2f, 0x64, 0x65, 0x70, 0x74, 0x68, 0x77, 0x69, 0x73, 0x65, 0x31, 0x00, 0x00, 
    0x04, 0x00, 0x00, 0x00, 0x01, 0x00, 0x00, 0x00, 0x03, 0x00, 0x00, 0x00, 0x03, 0x00, 0x00, 0x00, 
    0x02, 0x00, 0x00, 0x00, 0xa2, 0xf1, 0xff, 0xff, 0x00, 0x00, 0x00, 0x01, 0x14, 0x00, 0x00, 0x00, 
    0x3c, 0x00, 0x00, 0x00, 0x11, 0x00, 0x00, 0x00, 0x00, 0x00, 0x00, 0x02, 0x68, 0x00, 0x00, 0x00, 
    0xf4, 0xf0, 0xff, 0xff, 0x08, 0x00, 0x00, 0x00, 0x18, 0x00, 0x00, 0x00, 0x02, 0x00, 0x00, 0x00, 
    0x00, 0x00, 0x00, 0x00, 0x00, 0x00, 0x00, 0x00, 0x00, 0x00, 0x00, 0x00, 0x00, 0x00, 0x00, 0x00, 
    0x02, 0x00, 0x00, 0x00, 0xd9, 0x57, 0x7a, 0x37, 0x2b, 0x9f, 0x7b, 0x37, 0x31, 0x00, 0x00, 0x00, 
    0x6d, 0x6f, 0x64, 0x65, 0x6c, 0x2f, 0x73, 0x65, 0x70, 0x61, 0x72, 0x61, 0x62, 0x6c, 0x65, 0x5f, 
    0x63, 0x6f, 0x6e, 0x76, 0x32, 0x64, 0x2f, 0x73, 0x65, 0x70, 0x61, 0x72, 0x61, 0x62, 0x6c, 0x65, 
    0x5f, 0x63, 0x6f, 0x6e, 0x76, 0x32, 0x64, 0x2f, 0x64, 0x65, 0x70, 0x74, 0x68, 0x77, 0x69, 0x73, 
    0x65, 0x00, 0x00, 0x00, 0x01, 0x00, 0x00, 0x00, 0x02, 0x00, 0x00, 0x00, 0x2a, 0xf2, 0xff, 0xff, 
    0x00, 0x00, 0x00, 0x01, 0x14, 0x00, 0x00, 0x00, 0x84, 0x00, 0x00, 0x00, 0x10, 0x00, 0x00, 0x00, 
    0x00, 0x00, 0x00, 0x09, 0xa4, 0x00, 0x00, 0x00, 0x7c, 0xf1, 0xff, 0xff, 0x08, 0x00, 0x00, 0x00, 
    0x48, 0x00, 0x00, 0x00, 0x08, 0x00, 0x00, 0x00, 0x00, 0x00, 0x00, 0x00, 0x00, 0x00, 0x00, 0x00, 
    0x00, 0x00, 0x00, 0x00, 0x00, 0x00, 0x00, 0x00, 0x00, 0x00, 0x00, 0x00, 0x00, 0x00, 0x00, 0x00, 
    0x00, 0x00, 0x00, 0x00, 0x00, 0x00, 0x00, 0x00, 0x00, 0x00, 0x00, 0x00, 0x00, 0x00, 0x00, 0x00, 
    0x00, 0x00, 0x00, 0x00, 0x00, 0x00, 0x00, 0x00, 0x00, 0x00, 0x00, 0x00, 0x00, 0x00, 0x00, 0x00, 
    0x00, 0x00, 0x00, 0x00, 0x00, 0x00, 0x00, 0x00, 0x08, 0x00, 0x00, 0x00, 0x29, 0xfa, 0x55, 0x3d, 
    0x3e, 0xd8, 0xb8, 0x3d, 0x12, 0xa5, 0x80, 0x3d, 0x64, 0x4b, 0x9d, 0x3d, 0xc7, 0x40, 0xc7, 0x3c, 
    0x69, 0x85, 0x11, 0x3d, 0x1a, 0xe5, 0x34, 0x3d, 0xce, 0xdd, 0xa2, 0x3d, 0x27, 0x00, 0x00, 0x00, 
    0x6d, 0x6f, 0x64, 0x65, 0x6c, 0x2f, 0x73, 0x65, 0x70, 0x61, 0x72, 0x61, 0x62, 0x6c, 0x65, 0x5f, 
    0x63, 0x6f, 0x6e, 0x76, 0x32, 0x64, 0x2f, 0x73, 0x65, 0x70, 0x61, 0x72, 0x61, 0x62, 0x6c, 0x65, 
    0x5f, 0x63, 0x6f, 0x6e, 0x76, 0x32, 0x64, 0x00, 0x04, 0x00, 0x00, 0x00, 0x08, 0x00, 0x00, 0x00, 
    0x01, 0x00, 0x00, 0x00, 0x01, 0x00, 0x00, 0x00, 0x02, 0x00, 0x00, 0x00, 0xfa, 0xf2, 0xff, 0xff, 
    0x00, 0x00, 0x00, 0x01, 0x14, 0x00, 0x00, 0x00, 0x88, 0x00, 0x00, 0x00, 0x0f, 0x00, 0x00, 0x00, 
    0x00, 0x00, 0x00, 0x02, 0xac, 0x00, 0x00, 0x00, 0x4c, 0xf2, 0xff, 0xff, 0x08, 0x00, 0x00, 0x00, 
    0x4c, 0x00, 0x00, 0x00, 0x08, 0x00, 0x00, 0x00, 0x00, 0x00, 0x00, 0x00, 0x00, 0x00, 0x00, 0x00, 
    0x00, 0x00, 0x00, 0x00, 0x00, 0x00, 0x00, 0x00, 0x00, 0x00, 0x00, 0x00, 0x00, 0x00, 0x00, 0x00, 
    0x00, 0x00, 0x00, 0x00, 0x00, 0x00, 0x00, 0x00, 0x00, 0x00, 0x00, 0x00, 0x00, 0x00, 0x00, 0x00, 
    0x00, 0x00, 0x00, 0x00, 0x00, 0x00, 0x00, 0x00, 0x00, 0x00, 0x00, 0x00, 0x00, 0x00, 0x00, 0x00, 
    0x00, 0x00, 0x00, 0x00, 0x00, 0x00, 0x00, 0x00, 0x00, 0x00, 0x00, 0x00, 0x08, 0x00, 0x00, 0x00, 
    0x90, 0x7a, 0xe0, 0x39, 0xa0, 0xea, 0x41, 0x3a, 0x5c, 0xf5, 0x06, 0x3a, 0xa2, 0x03, 0x25, 0x3a, 
    0x2f, 0x08, 0x51, 0x39, 0xbc, 0xa9, 0x98, 0x39, 0xdc, 0xc5, 0xbd, 0x39, 0x0d, 0xdc, 0x2a, 0x3a, 
    0x2a, 0x00, 0x00, 0x00, 0x6d, 0x6f, 0x64, 0x65, 0x6c, 0x2f, 0x62, 0x61, 0x74, 0x63, 0x68, 0x5f, 
    0x6e, 0x6f, 0x72, 0x6d, 0x61, 0x6c, 0x69, 0x7a, 0x61, 0x74, 0x69, 0x6f, 0x6e, 0x2f, 0x46, 0x75, 
    0x73, 0x65, 0x64, 0x42, 0x61, 0x74, 0x63, 0x68, 0x4e, 0x6f, 0x72, 0x6d, 0x56, 0x33, 0x00, 0x00, 
    0x01, 0x00, 0x00, 0x00, 0x08, 0x00, 0x00, 0x00, 0xc6, 0xf3, 0xff, 0xff, 0x00, 0x00, 0x00, 0x01, 
    0x14, 0x00, 0x00, 0x00, 0x88, 0x00, 0x00, 0x00, 0x0e, 0x00, 0x00, 0x00, 0x00, 0x00, 0x00, 0x09, 
    0xb8, 0x00, 0x00, 0x00, 0xe2, 0xfb, 0xff, 0xff, 0x03, 0x00, 0x00, 0x00, 0x08, 0x00, 0x00, 0x00, 
    0x48, 0x00, 0x00, 0x00, 0x08, 0x00, 0x00, 0x00, 0x00, 0x00, 0x00, 0x00, 0x00, 0x00, 0x00, 0x00, 
    0x00, 0x00, 0x00, 0x00, 0x00, 0x00, 0x00, 0x00, 0x00, 0x00, 0x00, 0x00, 0x00, 0x00, 0x00, 0x00, 
    0x00, 0x00, 0x00, 0x00, 0x00, 0x00, 0x00, 0x00, 0x00, 0x00, 0x00, 0x00, 0x00, 0x00, 0x00, 0x00, 
    0x00, 0x00, 0x00, 0x00, 0x00, 0x00, 0x00, 0x00, 0x00, 0x00, 0x00, 0x00, 0x00, 0x00, 0x00, 0x00, 
    0x00, 0x00, 0x00, 0x00, 0x00, 0x00, 0x00, 0x00, 0x08, 0x00, 0x00, 0x00, 0xe4, 0x12, 0x03, 0x3b, 
    0xcc, 0x5f, 0x2b, 0x3b, 0x98, 0x1e, 0x6d, 0x3b, 0x14, 0x4c, 0x21, 0x3b, 0xf4, 0xea, 0x05, 0x3b, 
    0x41, 0x3b, 0x07, 0x3b, 0xf4, 0xd2, 0x58, 0x3b, 0x87, 0x2a, 0x8d, 0x3b, 0x34, 0x00, 0x00, 0x00, 
    0x6d, 0x6f, 0x64, 0x65, 0x6c, 0x2f, 0x73, 0x65, 0x70, 0x61, 0x72, 0x61, 0x62, 0x6c, 0x65, 0x5f, 
    0x63, 0x6f, 0x6e, 0x76, 0x32, 0x64, 0x5f, 0x31, 0x2f, 0x73, 0x65, 0x70, 0x61, 0x72, 0x61, 0x62, 
    0x6c, 0x65, 0x5f, 0x63, 0x6f, 0x6e, 0x76, 0x32, 0x64, 0x2f, 0x64, 0x65, 0x70, 0x74, 0x68, 0x77, 
    0x69, 0x73, 0x65, 0x31, 0x00, 0x00, 0x00, 0x00, 0x04, 0x00, 0x00, 0x00, 0x01, 0x00, 0x00, 0x00, 
    0x03, 0x00, 0x00, 0x00, 0x03, 0x00, 0x00, 0x00, 0x08, 0x00, 0x00, 0x00, 0xaa, 0xf4, 0xff, 0xff, 
    0x00, 0x00, 0x00, 0x01, 0x14, 0x00, 0x00, 0x00, 0x84, 0x00, 0x00, 0x00, 0x0d, 0x00, 0x00, 0x00, 
    0x00, 0x00, 0x00, 0x02, 0xb0, 0x00, 0x00, 0x00, 0xfc, 0xf3, 0xff, 0xff, 0x08, 0x00, 0x00, 0x00, 
    0x48, 0x00, 0x00, 0x00, 0x08, 0x00, 0x00, 0x00, 0x00, 0x00, 0x00, 0x00, 0x00, 0x00, 0x00, 0x00, 
    0x00, 0x00, 0x00, 0x00, 0x00, 0x00, 0x00, 0x00, 0x00, 0x00, 0x00, 0x00, 0x00, 0x00, 0x00, 0x00, 
    0x00, 0x00, 0x00, 0x00, 0x00, 0x00, 0x00, 0x00, 0x00, 0x00, 0x00, 0x00, 0x00, 0x00, 0x00, 0x00, 
    0x00, 0x00, 0x00, 0x00, 0x00, 0x00, 0x00, 0x00, 0x00, 0x00, 0x00, 0x00, 0x00, 0x00, 0x00, 0x00, 
    0x00, 0x00, 0x00, 0x00, 0x00, 0x00, 0x00, 0x00, 0x08, 0x00, 0x00, 0x00, 0x89, 0x4b, 0x8d, 0x38, 
    0xf7, 0xbc, 0xb8, 0x38, 0x3e, 0x9c, 0xff, 0x38, 0x13, 0xe0, 0xad, 0x38, 0x5f, 0x5c, 0x90, 0x38, 
    0xe6, 0xc6, 0x91, 0x38, 0x71, 0xbb, 0xe9, 0x38, 0xa5, 0x2c, 0x18, 0x39, 0x33, 0x00, 0x00, 0x00, 
    0x6d, 0x6f, 0x64, 0x65, 0x6c, 0x2f, 0x73, 0x65, 0x70, 0x61, 0x72, 0x61, 0x62, 0x6c, 0x65, 0x5f, 
    0x63, 0x6f, 0x6e, 0x76, 0x32, 0x64, 0x5f, 0x31, 0x2f, 0x73, 0x65, 0x70, 0x61, 0x72, 0x61, 0x62, 
    0x6c, 0x65, 0x5f, 0x63, 0x6f, 0x6e, 0x76, 0x32, 0x64, 0x2f, 0x64, 0x65, 0x70, 0x74, 0x68, 0x77, 
    0x69, 0x73, 0x65, 0x00, 0x01, 0x00, 0x00, 0x00, 0x08, 0x00, 0x00, 0x00, 0x7a, 0xf5, 0xff, 0xff, 
    0x00, 0x00, 0x00, 0x01, 0x14, 0x00, 0x00, 0x00, 0xe8, 0x00, 0x00, 0x00, 0x0c, 0x00, 0x00, 0x00, 
    0x00, 0x00, 0x00, 0x09, 0x0c, 0x01, 0x00, 0x00, 0xcc, 0xf4, 0xff, 0xff, 0x08, 0x00, 0x00, 0x00, 
    0x8c, 0x00, 0x00, 0x00, 0x10, 0x00, 0x00, 0x00, 0x00, 0x00, 0x00, 0x00, 0x00, 0x00, 0x00, 0x00, 
    0x00, 0x00, 0x00, 0x00, 0x00, 0x00, 0x00, 0x00, 0x00, 0x00, 0x00, 0x00, 0x00, 0x00, 0x00, 0x00, 
    0x00, 0x00, 0x00, 0x00, 0x00, 0x00, 0x00, 0x00, 0x00, 0x00, 0x00, 0x00, 0x00, 0x00, 0x00, 0x00, 
    0x00, 0x00, 0x00, 0x00, 0x00, 0x00, 0x00, 0x00, 0x00, 0x00, 0x00, 0x00, 0x00, 0x00, 0x00, 0x00, 
    0x00, 0x00, 0x00, 0x00, 0x00, 0x00, 0x00, 0x00, 0x00, 0x00, 0x00, 0x00, 0x00, 0x00, 0x00, 0x00, 
    0x00, 0x00, 0x00, 0x00, 0x00, 0x00, 0x00, 0x00, 0x00, 0x00, 0x00, 0x00, 0x00, 0x00, 0x00, 0x00, 
    0x00, 0x00, 0x00, 0x00, 0x00, 0x00, 0x00, 0x00, 0x00, 0x00, 0x00, 0x00, 0x00, 0x00, 0x00, 0x00, 
    0x00, 0x00, 0x00, 0x00, 0x00, 0x00, 0x00, 0x00, 0x00, 0x00, 0x00, 0x00, 0x00, 0x00, 0x00, 0x00, 
    0x00, 0x00, 0x00, 0x00, 0x00, 0x00, 0x00, 0x00, 0x00, 0x00, 0x00, 0x00, 0x10, 0x00, 0x00, 0x00, 
    0x70, 0x35, 0x36, 0x3c, 0x04, 0xf9, 0x92, 0x3c, 0xff, 0x75, 0xd3, 0x3c, 0x82, 0xfa, 0x6c, 0x3c, 
    0x3b, 0x1d, 0x56, 0x3c, 0xcd, 0xb6, 0x5d, 0x3c, 0x0a, 0x8e, 0x37, 0x3c, 0x64, 0x6c, 0x88, 0x3c, 
    0x87, 0x84, 0x59, 0x3c, 0x18, 0xfb, 0x85, 0x3c, 0x43, 0xfd, 0x5e, 0x3c, 0x3e, 0x79, 0x5f, 0x3c, 
    0xaa, 0x3d, 0x90, 0x3c, 0xfa, 0xc4, 0xba, 0x3c, 0x10, 0xd5, 0x83, 0x3c, 0x90, 0x77, 0x3e, 0x3c, 
    0x29, 0x00, 0x00, 0x00, 0x6d, 0x6f, 0x64, 0x65, 0x6c, 0x2f, 0x73, 0x65, 0x70, 0x61, 0x72, 0x61, 
    0x62, 0x6c, 0x65, 0x5f, 0x63, 0x6f, 0x6e, 0x76, 0x32, 0x64, 0x5f, 0x31, 0x2f, 0x73, 0x65, 0x70, 
    0x61, 0x72, 0x61, 0x62, 0x6c, 0x65, 0x5f, 0x63, 0x6f, 0x6e, 0x76, 0x32, 0x64, 0x00, 0x00, 0x00, 
    0x04, 0x00, 0x00, 0x00, 0x10, 0x00, 0x00, 0x00, 0x01, 0x00, 0x00, 0x00, 0x01, 0x00, 0x00, 0x00, 
    0x08, 0x00, 0x00, 0x00, 0xb2, 0xf6, 0xff, 0xff, 0x00, 0x00, 0x00, 0x01, 0x14, 0x00, 0x00, 0x00, 
    0xe8, 0x00, 0x00, 0x00, 0x0b, 0x00, 0x00, 0x00, 0x00, 0x00, 0x00, 0x02, 0x10, 0x01, 0x00, 0x00, 
    0x04, 0xf6, 0xff, 0xff, 0x08, 0x00, 0x00, 0x00, 0x8c, 0x00, 0x00, 0x00, 0x10, 0x00, 0x00, 0x00, 
    0x00, 0x00, 0x00, 0x00, 0x00, 0x00, 0x00, 0x00, 0x00, 0x00, 0x00, 0x00, 0x00, 0x00, 0x00, 0x00, 
    0x00, 0x00, 0x00, 0x00, 0x00, 0x00, 0x00, 0x00, 0x00, 0x00, 0x00, 0x00, 0x00, 0x00, 0x00, 0x00, 
    0x00, 0x00, 0x00, 0x00, 0x00, 0x00, 0x00, 0x00, 0x00, 0x00, 0x00, 0x00, 0x00, 0x00, 0x00, 0x00, 
    0x00, 0x00, 0x00, 0x00, 0x00, 0x00, 0x00, 0x00, 0x00, 0x00, 0x00, 0x00, 0x00, 0x00, 0x00, 0x00, 
    0x00, 0x00, 0x00, 0x00, 0x00, 0x00, 0x00, 0x00, 0x00, 0x00, 0x00, 0x00, 0x00, 0x00, 0x00, 0x00, 
    0x00, 0x00, 0x00, 0x00, 0x00, 0x00, 0x00, 0x00, 0x00, 0x00, 0x00, 0x00, 0x00, 0x00, 0x00, 0x00, 
    0x00, 0x00, 0x00, 0x00, 0x00, 0x00, 0x00, 0x00, 0x00, 0x00, 0x00, 0x00, 0x00, 0x00, 0x00, 0x00, 
    0x00, 0x00, 0x00, 0x00, 0x00, 0x00, 0x00, 0x00, 0x00, 0x00, 0x00, 0x00, 0x00, 0x00, 0x00, 0x00, 
    0x00, 0x00, 0x00, 0x00, 0x10, 0x00, 0x00, 0x00, 0xb3, 0xe9, 0xfd, 0x39, 0x7f, 0xcf, 0x4c, 0x3a, 
    0x9b, 0x56, 0x93, 0x3a, 0x39, 0x1e, 0x25, 0x3a, 0xdf, 0x2f, 0x15, 0x3a, 0x7a, 0x7b, 0x1a, 0x3a, 
    0xe9, 0xc9, 0xff, 0x39, 0x19, 0x1c, 0x3e, 0x3a, 0xf6, 0x8e, 0x17, 0x3a, 0xbb, 0xb4, 0x3a, 0x3a, 
    0xf1, 0x5e, 0x1b, 0x3a, 0x54, 0xb5, 0x1b, 0x3a, 0xee, 0x00, 0x49, 0x3a, 0x59, 0x22, 0x82, 0x3a, 
    0x3f, 0xb6, 0x37, 0x3a, 0xe5, 0xb5, 0x04, 0x3a, 0x2c, 0x00, 0x00, 0x00, 0x6d, 0x6f, 0x64, 0x65, 
    0x6c, 0x2f, 0x62, 0x61, 0x74, 0x63, 0x68, 0x5f, 0x6e, 0x6f, 0x72, 0x6d, 0x61, 0x6c, 0x69, 0x7a, 
    0x61, 0x74, 0x69, 0x6f, 0x6e, 0x5f, 0x31, 0x2f, 0x46, 0x75, 0x73, 0x65, 0x64, 0x42, 0x61, 0x74, 
    0x63, 0x68, 0x4e, 0x6f, 0x72, 0x6d, 0x56, 0x33, 0x00, 0x00, 0x00, 0x00, 0x01, 0x00, 0x00, 0x00, 
    0x10, 0x00, 0x00, 0x00, 0xe2, 0xf7, 0xff, 0xff, 0x00, 0x00, 0x00, 0x01, 0x28, 0x00, 0x00, 0x00, 
    0xfc, 0x00, 0x00, 0x00, 0x0a, 0x00, 0x00, 0x00, 0x00, 0x00, 0x00, 0x09, 0x2c, 0x01, 0x00, 0x00, 
    0x00, 0x00, 0x12, 0x00, 0x10, 0x00, 0x00, 0x00, 0x00, 0x00, 0x0c, 0x00, 0x08, 0x00, 0x00, 0x00, 
    0x00, 0x00, 0x04, 0x00, 0x12, 0x00, 0x00, 0x00, 0x03, 0x00, 0x00, 0x00, 0x08, 0x00, 0x00, 0x00, 
    0x88, 0x00, 0x00, 0x00, 0x10, 0x00, 0x00, 0x00, 0x00, 0x00, 0x00, 0x00, 0x00, 0x00, 0x00, 0x00, 
    0x00, 0x00, 0x00, 0x00, 0x00, 0x00, 0x00, 0x00, 0x00, 0x00, 0x00, 0x00, 0x00, 0x00, 0x00, 0x00, 
    0x00, 0x00, 0x00, 0x00, 0x00, 0x00, 0x00, 0x00, 0x00, 0x00, 0x00, 0x00, 0x00, 0x00, 0x00, 0x00, 
    0x00, 0x00, 0x00, 0x00, 0x00, 0x00, 0x00, 0x00, 0x00, 0x00, 0x00, 0x00, 0x00, 0x00, 0x00, 0x00, 
    0x00, 0x00, 0x00, 0x00, 0x00, 0x00, 0x00, 0x00, 0x00, 0x00, 0x00, 0x00, 0x00, 0x00, 0x00, 0x00, 
    0x00, 0x00, 0x00, 0x00, 0x00, 0x00, 0x00, 0x00, 0x00, 0x00, 0x00, 0x00, 0x00, 0x00, 0x00, 0x00, 
    0x00, 0x00, 0x00, 0x00, 0x00, 0x00, 0x00, 0x00, 0x00, 0x00, 0x00, 0x00, 0x00, 0x00, 0x00, 0x00, 
    0x00, 0x00, 0x00, 0x00, 0x00, 0x00, 0x00, 0x00, 0x00, 0x00, 0x00, 0x00, 0x00, 0x00, 0x00, 0x00, 
    0x00, 0x00, 0x00, 0x00, 0x00, 0x00, 0x00, 0x00, 0x10, 0x00, 0x00, 0x00, 0x66, 0xe3, 0xdb, 0x3a, 
    0x53, 0xfc, 0x06, 0x3b, 0xf3, 0x9a, 0xe5, 0x3a, 0x88, 0x5f, 0xb3, 0x3a, 0xfb, 0x19, 0xa2, 0x3a, 
    0x31, 0x7e, 0x07, 0x3b, 0xbf, 0xa9, 0x05, 0x3b, 0x9a, 0xb3, 0x17, 0x3b, 0xe1, 0x28, 0x21, 0x3b, 
    0xd4, 0x27, 0x0e, 0x3b, 0x5a, 0x1c, 0x4b, 0x3b, 0x47, 0xa5, 0xd9, 0x3a, 0xfa, 0xaa, 0xba, 0x3a, 
    0x6f, 0xa9, 0xa4, 0x3a, 0x37, 0x42, 0xe3, 0x3a, 0x50, 0x9d, 0xd3, 0x3a, 0x34, 0x00, 0x00, 0x00, 
    0x6d, 0x6f, 0x64, 0x65, 0x6c, 0x2f, 0x73, 0x65, 0x70, 0x61, 0x72, 0x61, 0x62, 0x6c, 0x65, 0x5f, 
    0x63, 0x6f, 0x6e, 0x76, 0x32, 0x64, 0x5f, 0x32, 0x2f, 0x73, 0x65, 0x70, 0x61, 0x72, 0x61, 0x62, 
    0x6c, 0x65, 0x5f, 0x63, 0x6f, 0x6e, 0x76, 0x32, 0x64, 0x2f, 0x64, 0x65, 0x70, 0x74, 0x68, 0x77, 
    0x69, 0x73, 0x65, 0x31, 0x00, 0x00, 0x00, 0x00, 0x04, 0x00, 0x00, 0x00, 0x01, 0x00, 0x00, 0x00, 
    0x03, 0x00, 0x00, 0x00, 0x03, 0x00, 0x00, 0x00, 0x10, 0x00, 0x00, 0x00, 0x3a, 0xf9, 0xff, 0xff, 
    0x00, 0x00, 0x00, 0x01, 0x14, 0x00, 0x00, 0x00, 0xe4, 0x00, 0x00, 0x00, 0x09, 0x00, 0x00, 0x00, 
    0x00, 0x00, 0x00, 0x02, 0x10, 0x01, 0x00, 0x00, 0x8c, 0xf8, 0xff, 0xff, 0x08, 0x00, 0x00, 0x00, 
    0x88, 0x00, 0x00, 0x00, 0x10, 0x00, 0x00, 0x00, 0x00, 0x00, 0x00, 0x00, 0x00, 0x00, 0x00, 0x00, 
    0x00, 0x00, 0x00, 0x00, 0x00, 0x00, 0x00, 0x00, 0x00, 0x00, 0x00, 0x00, 0x00, 0x00, 0x00, 0x00, 
    0x00, 0x00, 0x00, 0x00, 0x00, 0x00, 0x00, 0x00, 0x00, 0x00, 0x00, 0x00, 0x00, 0x00, 0x00, 0x00, 
    0x00, 0x00, 0x00, 0x00, 0x00, 0x00, 0x00, 0x00, 0x00, 0x00, 0x00, 0x00, 0x00, 0x00, 0x00, 0x00, 
    0x00, 0x00, 0x00, 0x00, 0x00, 0x00, 0x00, 0x00, 0x00, 0x00, 0x00, 0x00, 0x00, 0x00, 0x00, 0x00, 
    0x00, 0x00, 0x00, 0x00, 0x00, 0x00, 0x00, 0x00, 0x00, 0x00, 0x00, 0x00, 0x00, 0x00, 0x00, 0x00, 
    0x00, 0x00, 0x00, 0x00, 0x00, 0x00, 0x00, 0x00, 0x00, 0x00, 0x00, 0x00, 0x00, 0x00, 0x00, 0x00, 
    0x00, 0x00, 0x00, 0x00, 0x00, 0x00, 0x00, 0x00, 0x00, 0x00, 0x00, 0x00, 0x00, 0x00, 0x00, 0x00, 
    0x00, 0x00, 0x00, 0x00, 0x00, 0x00, 0x00, 0x00, 0x10, 0x00, 0x00, 0x00, 0xd4, 0x7c, 0x99, 0x38, 
    0x62, 0x72, 0xbc, 0x38, 0x33, 0x45, 0xa0, 0x38, 0x00, 0x6a, 0x7a, 0x38, 0x4a, 0x4d, 0x62, 0x38, 
    0xb0, 0x27, 0xbd, 0x38, 0xb6, 0x99, 0xba, 0x38, 0x79, 0xc8, 0xd3, 0x38, 0xb3, 0xfc, 0xe0, 0x38, 
    0xd7, 0x74, 0xc6, 0x38, 0xc6, 0xc6, 0x0d, 0x39, 0x13, 0xec, 0x97, 0x38, 0x86, 0x4c, 0x82, 0x38, 
    0x56, 0xe0, 0x65, 0x38, 0xdf, 0xa1, 0x9e, 0x38, 0x59, 0xb6, 0x93, 0x38, 0x33, 0x00, 0x00, 0x00, 
    0x6d, 0x6f, 0x64, 0x65, 0x6c, 0x2f, 0x73, 0x65, 0x70, 0x61, 0x72, 0x61, 0x62, 0x6c, 0x65, 0x5f, 
    0x63, 0x6f, 0x6e, 0x76, 0x32, 0x64, 0x5f, 0x32, 0x2f, 0x73, 0x65, 0x70, 0x61, 0x72, 0x61, 0x62, 
    0x6c, 0x65, 0x5f, 0x63, 0x6f, 0x6e, 0x76, 0x32, 0x64, 0x2f, 0x64, 0x65, 0x70, 0x74, 0x68, 0x77, 
    0x69, 0x73, 0x65, 0x00, 0x01, 0x00, 0x00, 0x00, 0x10, 0x00, 0x00, 0x00, 0x6a, 0xfa, 0xff, 0xff, 
    0x00, 0x00, 0x00, 0x01, 0x14, 0x00, 0x00, 0x00, 0xa8, 0x01, 0x00, 0x00, 0x08, 0x00, 0x00, 0x00, 
    0x00, 0x00, 0x00, 0x09, 0xcc, 0x01, 0x00, 0x00, 0xbc, 0xf9, 0xff, 0xff, 0x08, 0x00, 0x00, 0x00, 
    0x0c, 0x01, 0x00, 0x00, 0x20, 0x00, 0x00, 0x00, 0x00, 0x00, 0x00, 0x00, 0x00, 0x00, 0x00, 0x00, 
    0x00, 0x00, 0x00, 0x00, 0x00, 0x00, 0x00, 0x00, 0x00, 0x00, 0x00, 0x00, 0x00, 0x00, 0x00, 0x00, 
    0x00, 0x00, 0x00, 0x00, 0x00, 0x00, 0x00, 0x00, 0x00, 0x00, 0x00, 0x00, 0x00, 0x00, 0x00, 0x00, 
    0x00, 0x00, 0x00, 0x00, 0x00, 0x00, 0x00, 0x00, 0x00, 0x00, 0x00, 0x00, 0x00, 0x00, 0x00, 0x00, 
    0x00, 0x00, 0x00, 0x00, 0x00, 0x00, 0x00, 0x00, 0x00, 0x00, 0x00, 0x00, 0x00, 0x00, 0x00, 0x00, 
    0x00, 0x00, 0x00, 0x00, 0x00, 0x00, 0x00, 0x00, 0x00, 0x00, 0x00, 0x00, 0x00, 0x00, 0x00, 0x00, 
    0x00, 0x00, 0x00, 0x00, 0x00, 0x00, 0x00, 0x00, 0x00, 0x00, 0x00, 0x00, 0x00, 0x00, 0x00, 0x00, 
    0x00, 0x00, 0x00, 0x00, 0x00, 0x00, 0x00, 0x00, 0x00, 0x00, 0x00, 0x00, 0x00, 0x00, 0x00, 0x00, 
    0x00, 0x00, 0x00, 0x00, 0x00, 0x00, 0x00, 0x00, 0x00, 0x00, 0x00, 0x00, 0x00, 0x00, 0x00, 0x00, 
    0x00, 0x00, 0x00, 0x00, 0x00, 0x00, 0x00, 0x00, 0x00, 0x00, 0x00, 0x00, 0x00, 0x00, 0x00, 0x00, 
    0x00, 0x00, 0x00, 0x00, 0x00, 0x00, 0x00, 0x00, 0x00, 0x00, 0x00, 0x00, 0x00, 0x00, 0x00, 0x00, 
    0x00, 0x00, 0x00, 0x00, 0x00, 0x00, 0x00, 0x00, 0x00, 0x00, 0x00, 0x00, 0x00, 0x00, 0x00, 0x00, 
    0x00, 0x00, 0x00, 0x00, 0x00, 0x00, 0x00, 0x00, 0x00, 0x00, 0x00, 0x00, 0x00, 0x00, 0x00, 0x00, 
    0x00, 0x00, 0x00, 0x00, 0x00, 0x00, 0x00, 0x00, 0x00, 0x00, 0x00, 0x00, 0x00, 0x00, 0x00, 0x00, 
    0x00, 0x00, 0x00, 0x00, 0x00, 0x00, 0x00, 0x00, 0x00, 0x00, 0x00, 0x00, 0x00, 0x00, 0x00, 0x00, 
    0x00, 0x00, 0x00, 0x00, 0x00, 0x00, 0x00, 0x00, 0x00, 0x00, 0x00, 0x00, 0x00, 0x00, 0x00, 0x00, 
    0x00, 0x00, 0x00, 0x00, 0x00, 0x00, 0x00, 0x00, 0x00, 0x00, 0x00, 0x00, 0x20, 0x00, 0x00, 0x00, 
    0x4d, 0x7b, 0xbb, 0x3c, 0x6c, 0xed, 0x15, 0x3d, 0xfa, 0x1c, 0xc3, 0x3c, 0xcf, 0xfa, 0xee, 0x3c, 
    0x2f, 0xc2, 0xea, 0x3c, 0xf0, 0x14, 0x40, 0x3d, 0x17, 0xec, 0xf4, 0x3c, 0xb7, 0xdb, 0xcc, 0x3c, 
    0x9b, 0x84, 0x29, 0x3d, 0x6c, 0xc5, 0x0d, 0x3d, 0xbb, 0x62, 0x0f, 0x3d, 0x03, 0xb1, 0x21, 0x3d, 
    0x43, 0xcc, 0xbe, 0x3c, 0xba, 0xb4, 0x3c, 0x3c, 0xe1, 0xa6, 0x93, 0x3c, 0xf8, 0x5d, 0x69, 0x3c, 
    0x4b, 0xa7, 0xf3, 0x3c, 0x66, 0xe6, 0xee, 0x3c, 0xa2, 0xdc, 0xa1, 0x3c, 0x86, 0x78, 0x0f, 0x3d, 
    0x53, 0x9a, 0xf1, 0x3c, 0x26, 0x02, 0x1f, 0x3d, 0x2f, 0x7e, 0x08, 0x3d, 0xc1, 0x48, 0x2a, 0x3d, 
    0x61, 0xf5, 0xdb, 0x3c, 0x78, 0x28, 0x17, 0x3d, 0xa3, 0x6b, 0x00, 0x3d, 0xb2, 0x65, 0x0f, 0x3d, 
    0xf6, 0x0f, 0x07, 0x3d, 0x4c, 0xca, 0xe4, 0x3c, 0x1c, 0x35, 0xe9, 0x3c, 0x02, 0x90, 0xf0, 0x3c, 
    0x29, 0x00, 0x00, 0x00, 0x6d, 0x6f, 0x64, 0x65, 0x6c, 0x2f, 0x73, 0x65, 0x70, 0x61, 0x72, 0x61, 
    0x62, 0x6c, 0x65, 0x5f, 0x63, 0x6f, 0x6e, 0x76, 0x32, 0x64, 0x5f, 0x32, 0x2f, 0x73, 0x65, 0x70, 
    0x61, 0x72, 0x61, 0x62, 0x6c, 0x65, 0x5f, 0x63, 0x6f, 0x6e, 0x76, 0x32, 0x64, 0x00, 0x00, 0x00, 
    0x04, 0x00, 0x00, 0x00, 0x20, 0x00, 0x00, 0x00, 0x01, 0x00, 0x00, 0x00, 0x01, 0x00, 0x00, 0x00, 
    0x10, 0x00, 0x00, 0x00, 0x62, 0xfc, 0xff, 0xff, 0x00, 0x00, 0x00, 0x01, 0x14, 0x00, 0x00, 0x00, 
    0xa8, 0x01, 0x00, 0x00, 0x07, 0x00, 0x00, 0x00, 0x00, 0x00, 0x00, 0x02, 0xd0, 0x01, 0x00, 0x00, 
    0xb4, 0xfb, 0xff, 0xff, 0x08, 0x00, 0x00, 0x00, 0x0c, 0x01, 0x00, 0x00, 0x20, 0x00, 0x00, 0x00, 
    0x00, 0x00, 0x00, 0x00, 0x00, 0x00, 0x00, 0x00, 0x00, 0x00, 0x00, 0x00, 0x00, 0x00, 0x00, 0x00, 
    0x00, 0x00, 0x00, 0x00, 0x00, 0x00, 0x00, 0x00, 0x00, 0x00, 0x00, 0x00, 0x00, 0x00, 0x00, 0x00, 
    0x00, 0x00, 0x00, 0x00, 0x00, 0x00, 0x00, 0x00, 0x00, 0x00, 0x00, 0x00, 0x00, 0x00, 0x00, 0x00, 
    0x00, 0x00, 0x00, 0x00, 0x00, 0x00, 0x00, 0x00, 0x00, 0x00, 0x00, 0x00, 0x00, 0x00, 0x00, 0x00, 
    0x00, 0x00, 0x00, 0x00, 0x00, 0x00, 0x00, 0x00, 0x00, 0x00, 0x00, 0x00, 0x00, 0x00, 0x00, 0x00, 
    0x00, 0x00, 0x00, 0x00, 0x00, 0x00, 0x00, 0x00, 0x00, 0x00, 0x00, 0x00, 0x00, 0x00, 0x00, 0x00, 
    0x00, 0x00, 0x00, 0x00, 0x00, 0x00, 0x00, 0x00, 0x00, 0x00, 0x00, 0x00, 0x00, 0x00, 0x00, 0x00, 
    0x00, 0x00, 0x00, 0x00, 0x00, 0x00, 0x00, 0x00, 0x00, 0x00, 0x00, 0x00, 0x00, 0x00, 0x00, 0x00, 
    0x00, 0x00, 0x00, 0x00, 0x00, 0x00, 0x00, 0x00, 0x00, 0x00, 0x00, 0x00, 0x00, 0x00, 0x00, 0x00, 
    0x00, 0x00, 0x00, 0x00, 0x00, 0x00, 0x00, 0x00, 0x00, 0x00, 0x00, 0x00, 0x00, 0x00, 0x00, 0x00, 
    0x00, 0x00, 0x00, 0x00, 0x00, 0x00, 0x00, 0x00, 0x00, 0x00, 0x00, 0x00, 0x00, 0x00, 0x00, 0x00, 
    0x00, 0x00, 0x00, 0x00, 0x00, 0x00, 0x00, 0x00, 0x00, 0x00, 0x00, 0x00, 0x00, 0x00, 0x00, 0x00, 
    0x00, 0x00, 0x00, 0x00, 0x00, 0x00, 0x00, 0x00, 0x00, 0x00, 0x00, 0x00, 0x00, 0x00, 0x00, 0x00, 
    0x00, 0x00, 0x00, 0x00, 0x00, 0x00, 0x00, 0x00, 0x00, 0x00, 0x00, 0x00, 0x00, 0x00, 0x00, 0x00, 
    0x00, 0x00, 0x00, 0x00, 0x00, 0x00, 0x00, 0x00, 0x00, 0x00, 0x00, 0x00, 0x00, 0x00, 0x00, 0x00, 
    0x00, 0x00, 0x00, 0x00, 0x00, 0x00, 0x00, 0x00, 0x00, 0x00, 0x00, 0x00, 0x00, 0x00, 0x00, 0x00, 
    0x00, 0x00, 0x00, 0x00, 0x20, 0x00, 0x00, 0x00, 0x69, 0xe9, 0x7b, 0x3a, 0x9e, 0x73, 0xc9, 0x3a, 
    0x3f, 0x15, 0x83, 0x3a, 0xca, 0x8d, 0xa0, 0x3a, 0xcb, 0xb7, 0x9d, 0x3a, 0xe1, 0x0b, 0x01, 0x3b, 
    0xd5, 0x8b, 0xa4, 0x3a, 0x49, 0xa1, 0x89, 0x3a, 0x53, 0xc6, 0xe3, 0x3a, 0x0e, 0x7e, 0xbe, 0x3a, 
    0x66, 0xa9, 0xc0, 0x3a, 0x2c, 0x42, 0xd9, 0x3a, 0x10, 0x2f, 0x80, 0x3a, 0x8d, 0x8e, 0xfd, 0x39, 
    0xe1, 0x64, 0x46, 0x3a, 0x7a, 0xc8, 0x1c, 0x3a, 0x9f, 0xb1, 0xa3, 0x3a, 0x13, 0x80, 0xa0, 0x3a, 
    0xc9, 0x7c, 0x59, 0x3a, 0xaf, 0xc6, 0xc0, 0x3a, 0xef, 0x50, 0xa2, 0x3a, 0x43, 0xa7, 0xd5, 0x3a, 
    0x73, 0x66, 0xb7, 0x3a, 0xe2, 0xcd, 0xe4, 0x3a, 0x5b, 0xc6, 0x93, 0x3a, 0xef, 0x1a, 0xcb, 0x3a, 
    0xb6, 0x8d, 0xac, 0x3a, 0x62, 0xad, 0xc0, 0x3a, 0x5e, 0x7a, 0xb5, 0x3a, 0x4f, 0xb5, 0x99, 0x3a, 
    0x06, 0xad, 0x9c, 0x3a, 0x03, 0x9e, 0xa1, 0x3a, 0x2c, 0x00, 0x00, 0x00, 0x6d, 0x6f, 0x64, 0x65, 
    0x6c, 0x2f, 0x62, 0x61, 0x74, 0x63, 0x68, 0x5f, 0x6e, 0x6f, 0x72, 0x6d, 0x61, 0x6c, 0x69, 0x7a, 
    0x61, 0x74, 0x69, 0x6f, 0x6e, 0x5f, 0x32, 0x2f, 0x46, 0x75, 0x73, 0x65, 0x64, 0x42, 0x61, 0x74, 
    0x63, 0x68, 0x4e, 0x6f, 0x72, 0x6d, 0x56, 0x33, 0x00, 0x00, 0x00, 0x00, 0x01, 0x00, 0x00, 0x00, 
    0x20, 0x00, 0x00, 0x00, 0x52, 0xfe, 0xff, 0xff, 0x00, 0x00, 0x00, 0x01, 0x14, 0x00, 0x00, 0x00, 
    0x30, 0x00, 0x00, 0x00, 0x06, 0x00, 0x00, 0x00, 0x00, 0x00, 0x00, 0x09, 0x3c, 0x00, 0x00, 0x00, 
    0xa4, 0xfd, 0xff, 0xff, 0x08, 0x00, 0x00, 0x00, 0x10, 0x00, 0x00, 0x00, 0x01, 0x00, 0x00, 0x00, 
    0x00, 0x00, 0x00, 0x00, 0x00, 0x00, 0x00, 0x00, 0x01, 0x00, 0x00, 0x00, 0x3a, 0x6d, 0x14, 0x3c, 
    0x12, 0x00, 0x00, 0x00, 0x6d, 0x6f, 0x64, 0x65, 0x6c, 0x2f, 0x64, 0x65, 0x6e, 0x73, 0x65, 0x2f, 
    0x4d, 0x61, 0x74, 0x4d, 0x75, 0x6c, 0x00, 0x00, 0x02, 0x00, 0x00, 0x00, 0x20, 0x00, 0x00, 0x00, 
    0x20, 0x00, 0x00, 0x00, 0xb2, 0xfe, 0xff, 0xff, 0x00, 0x00, 0x00, 0x01, 0x14, 0x00, 0x00, 0x00, 
    0x34, 0x00, 0x00, 0x00, 0x05, 0x00, 0x00, 0x00, 0x00, 0x00, 0x00, 0x02, 0x50, 0x00, 0x00, 0x00, 
    0x04, 0xfe, 0xff, 0xff, 0x08, 0x00, 0x00, 0x00, 0x14, 0x00, 0x00, 0x00, 0x01, 0x00, 0x00, 0x00, 
    0x00, 0x00, 0x00, 0x00, 0x00, 0x00, 0x00, 0x00, 0x00, 0x00, 0x00, 0x00, 0x01, 0x00, 0x00, 0x00, 
    0xb7, 0x6e, 0x8c, 0x38, 0x22, 0x00, 0x00, 0x00, 0x6d, 0x6f, 0x64, 0x65, 0x6c, 0x2f, 0x64, 0x65, 
    0x6e, 0x73, 0x65, 0x2f, 0x42, 0x69, 0x61, 0x73, 0x41, 0x64, 0x64, 0x2f, 0x52, 0x65, 0x61, 0x64, 
    0x56, 0x61, 0x72, 0x69, 0x61, 0x62, 0x6c, 0x65, 0x4f, 0x70, 0x00, 0x00, 0x01, 0x00, 0x00, 0x00, 
    0x20, 0x00, 0x00, 0x00, 0x22, 0xff, 0xff, 0xff, 0x00, 0x00, 0x00, 0x01, 0x14, 0x00, 0x00, 0x00, 
    0x34, 0x00, 0x00, 0x00, 0x04, 0x00, 0x00, 0x00, 0x00, 0x00, 0x00, 0x09, 0x44, 0x00, 0x00, 0x00, 
    0x74, 0xfe, 0xff, 0xff, 0x08, 0x00, 0x00, 0x00, 0x14, 0x00, 0x00, 0x00, 0x01, 0x00, 0x00, 0x00, 
    0x00, 0x00, 0x00, 0x00, 0x00, 0x00, 0x00, 0x00, 0x00, 0x00, 0x00, 0x00, 0x01, 0x00, 0x00, 0x00, 
    0x0c, 0x7d, 0xbc, 0x3c, 0x14, 0x00, 0x00, 0x00, 0x6d, 0x6f, 0x64, 0x65, 0x6c, 0x2f, 0x64, 0x65, 
    0x6e, 0x73, 0x65, 0x5f, 0x31, 0x2f, 0x4d, 0x61, 0x74, 0x4d, 0x75, 0x6c, 0x00, 0x00, 0x00, 0x00, 
    0x02, 0x00, 0x00, 0x00, 0x0a, 0x00, 0x00, 0x00, 0x20, 0x00, 0x00, 0x00, 0x8a, 0xff, 0xff, 0xff, 
    0x00, 0x00, 0x00, 0x01, 0x14, 0x00, 0x00, 0x00, 0x34, 0x00, 0x00, 0x00, 0x03, 0x00, 0x00, 0x00, 
    0x00, 0x00, 0x00, 0x02, 0x54, 0x00, 0x00, 0x00, 0xdc, 0xfe, 0xff, 0xff, 0x08, 0x00, 0x00, 0x00, 
    0x14, 0x00, 0x00, 0x00, 0x01, 0x00, 0x00, 0x00, 0x00, 0x00, 0x00, 0x00, 0x00, 0x00, 0x00, 0x00, 
    0x00, 0x00, 0x00, 0x00, 0x01, 0x00, 0x00, 0x00, 0xd7, 0x0f, 0xb7, 0x39, 0x24, 0x00, 0x00, 0x00, 
    0x6d, 0x6f, 0x64, 0x65, 0x6c, 0x2f, 0x64, 0x65, 0x6e, 0x73, 0x65, 0x5f, 0x31, 0x2f, 0x42, 0x69, 
    0x61, 0x73, 0x41, 0x64, 0x64, 0x2f, 0x52, 0x65, 0x61, 0x64, 0x56, 0x61, 0x72, 0x69, 0x61, 0x62, 
    0x6c, 0x65, 0x4f, 0x70, 0x00, 0x00, 0x00, 0x00, 0x01, 0x00, 0x00, 0x00, 0x0a, 0x00, 0x00, 0x00, 
    0x00, 0x00, 0x16, 0x00, 0x1c, 0x00, 0x18, 0x00, 0x17, 0x00, 0x10, 0x00, 0x0c, 0x00, 0x08, 0x00, 
    0x00, 0x00, 0x00, 0x00, 0x00, 0x00, 0x07, 0x00, 0x16, 0x00, 0x00, 0x00, 0x00, 0x00, 0x00, 0x01, 
    0x18, 0x00, 0x00, 0x00, 0x18, 0x00, 0x00, 0x00, 0x02, 0x00, 0x00, 0x00, 0x00, 0x00, 0x00, 0x02, 
    0x48, 0x00, 0x00, 0x00, 0x04, 0x00, 0x04, 0x00, 0x04, 0x00, 0x00, 0x00, 0x35, 0x00, 0x00, 0x00, 
    0x6d, 0x6f, 0x64, 0x65, 0x6c, 0x2f, 0x67, 0x6c, 0x6f, 0x62, 0x61, 0x6c, 0x5f, 0x61, 0x76, 0x65, 
    0x72, 0x61, 0x67, 0x65, 0x5f, 0x70, 0x6f, 0x6f, 0x6c, 0x69, 0x6e, 0x67, 0x32, 0x64, 0x2f, 0x4d, 
    0x65, 0x61, 0x6e, 0x2f, 0x72, 0x65, 0x64, 0x75, 0x63, 0x74, 0x69, 0x6f, 0x6e, 0x5f, 0x69, 0x6e, 
    0x64, 0x69, 0x63, 0x65, 0x73, 0x00, 0x00, 0x00, 0x01, 0x00, 0x00, 0x00, 0x02, 0x00, 0x00, 0x00, 
    0x00, 0x00, 0x16, 0x00, 0x20, 0x00, 0x1c, 0x00, 0x1b, 0x00, 0x14, 0x00, 0x10, 0x00, 0x0c, 0x00, 
    0x00, 0x00, 0x00, 0x00, 0x08, 0x00, 0x07, 0x00, 0x16, 0x00, 0x00, 0x00, 0x00, 0x00, 0x00, 0x01, 
    0x18, 0x00, 0x00, 0x00, 0x34, 0x00, 0x00, 0x00, 0x50, 0x00, 0x00, 0x00, 0x01, 0x00, 0x00, 0x00, 
    0x00, 0x00, 0x00, 0x09, 0x64, 0x00, 0x00, 0x00, 0x04, 0x00, 0x00, 0x00, 0xff, 0xff, 0xff, 0xff, 
    0x50, 0x00, 0x00, 0x00, 0x50, 0x00, 0x00, 0x00, 0x02, 0x00, 0x00, 0x00, 0x0c, 0x00, 0x0c, 0x00, 
    0x00, 0x00, 0x00, 0x00, 0x08, 0x00, 0x04, 0x00, 0x0c, 0x00, 0x00, 0x00, 0x08, 0x00, 0x00, 0x00, 
    0x10, 0x00, 0x00, 0x00, 0x01, 0x00, 0x00, 0x00, 0x80, 0xff, 0xff, 0xff, 0xff, 0xff, 0xff, 0xff, 
    0x01, 0x00, 0x00, 0x00, 0xfe, 0xfe, 0x7f, 0x3b, 0x19, 0x00, 0x00, 0x00, 0x73, 0x65, 0x72, 0x76, 
    0x69, 0x6e, 0x67, 0x5f, 0x64, 0x65, 0x66, 0x61, 0x75, 0x6c, 0x74, 0x5f, 0x69, 0x6e, 0x70, 0x75, 
    0x74, 0x5f, 0x31, 0x3a, 0x30, 0x00, 0x00, 0x00, 0x04, 0x00, 0x00, 0x00, 0x01, 0x00, 0x00, 0x00, 
    0x50, 0x00, 0x00, 0x00, 0x50, 0x00, 0x00, 0x00, 0x02, 0x00, 0x00, 0x00, 0x07, 0x00, 0x00, 0x00, 
    0x90, 0x00, 0x00, 0x00, 0x70, 0x00, 0x00, 0x00, 0x60, 0x00, 0x00, 0x00, 0x40, 0x00, 0x00, 0x00, 
    0x2c, 0x00, 0x00, 0x00, 0x18, 0x00, 0x00, 0x00, 0x04, 0x00, 0x00, 0x00, 0x98, 0xff, 0xff, 0xff, 
    0x19, 0x00, 0x00, 0x00, 0x02, 0x00, 0x00, 0x00, 0x00, 0x00, 0x00, 0x19, 0xa8, 0xff, 0xff, 0xff, 
    0x09, 0x00, 0x00, 0x00, 0x04, 0x00, 0x00, 0x00, 0x00, 0x00, 0x00, 0x09, 0xb8, 0xff, 0xff, 0xff, 
    0x28, 0x00, 0x00, 0x00, 0x02, 0x00, 0x00, 0x00, 0x00, 0x00, 0x00, 0x28, 0xc8, 0xff, 0xff, 0xff, 
    0x11, 0x00, 0x00, 0x00, 0x02, 0x00, 0x00, 0x00, 0x00, 0x00, 0x00, 0x11, 0x0c, 0x00, 0x0c, 0x00, 
    0x0b, 0x00, 0x00, 0x00, 0x00, 0x00, 0x04, 0x00, 0x0c, 0x00, 0x00, 0x00, 0x62, 0x00, 0x00, 0x00, 
    0x00, 0x00, 0x00, 0x62, 0xf0, 0xff, 0xff, 0xff, 0x03, 0x00, 0x00, 0x00, 0x03, 0x00, 0x00, 0x00, 
    0x00, 0x00, 0x00, 0x03, 0x0c, 0x00, 0x10, 0x00, 0x0f, 0x00, 0x00, 0x00, 0x08, 0x00, 0x04, 0x00, 
    0x0c, 0x00, 0x00, 0x00, 0x04, 0x00, 0x00, 0x00, 0x03, 0x00, 0x00, 0x00, 0x00, 0x00, 0x00, 0x04, 

};

const size_t neural_model_size = sizeof(neural_model_data);

const uint8_t* get_neural_model_data(void) {
    return neural_model_data;
}

size_t get_neural_model_size(void) {
    return neural_model_size;
}
